unsigned char henon_model_tflite[] = {
  0x20, 0x00, 0x00, 0x00, 0x54, 0x46, 0x4c, 0x33, 0x00, 0x00, 0x00, 0x00,
  0x14, 0x00, 0x20, 0x00, 0x04, 0x00, 0x08, 0x00, 0x0c, 0x00, 0x10, 0x00,
  0x14, 0x00, 0x00, 0x00, 0x18, 0x00, 0x1c, 0x00, 0x14, 0x00, 0x00, 0x00,
  0x03, 0x00, 0x00, 0x00, 0x18, 0x00, 0x00, 0x00, 0x20, 0x00, 0x00, 0x00,
  0x1c, 0x01, 0x00, 0x00, 0x20, 0x00, 0x00, 0x00, 0xc4, 0x00, 0x00, 0x00,
  0x40, 0x00, 0x00, 0x00, 0x02, 0x00, 0x00, 0x00, 0x60, 0x03, 0x00, 0x00,
  0xb4, 0x01, 0x00, 0x00, 0x01, 0x00, 0x00, 0x00, 0x20, 0x01, 0x00, 0x00,
  0x09, 0x00, 0x00, 0x00, 0xa4, 0x53, 0x00, 0x00, 0xa0, 0x53, 0x00, 0x00,
  0xf4, 0x05, 0x00, 0x00, 0x78, 0x04, 0x00, 0x00, 0xc0, 0x03, 0x00, 0x00,
  0x90, 0x53, 0x00, 0x00, 0x8c, 0x53, 0x00, 0x00, 0x88, 0x53, 0x00, 0x00,
  0xb8, 0x00, 0x00, 0x00, 0x01, 0x00, 0x00, 0x00, 0x10, 0x00, 0x00, 0x00,
  0x00, 0x00, 0x0a, 0x00, 0x10, 0x00, 0x0c, 0x00, 0x08, 0x00, 0x04, 0x00,
  0x0a, 0x00, 0x00, 0x00, 0x0c, 0x00, 0x00, 0x00, 0x1c, 0x00, 0x00, 0x00,
  0x20, 0x00, 0x00, 0x00, 0x0f, 0x00, 0x00, 0x00, 0x73, 0x65, 0x72, 0x76,
  0x69, 0x6e, 0x67, 0x5f, 0x64, 0x65, 0x66, 0x61, 0x75, 0x6c, 0x74, 0x00,
  0x01, 0x00, 0x00, 0x00, 0x14, 0x00, 0x00, 0x00, 0x01, 0x00, 0x00, 0x00,
  0x24, 0x00, 0x00, 0x00, 0x08, 0x00, 0x0c, 0x00, 0x08, 0x00, 0x04, 0x00,
  0x08, 0x00, 0x00, 0x00, 0x06, 0x00, 0x00, 0x00, 0x04, 0x00, 0x00, 0x00,
  0x07, 0x00, 0x00, 0x00, 0x64, 0x65, 0x6e, 0x73, 0x65, 0x5f, 0x31, 0x00,
  0x96, 0xfa, 0xff, 0xff, 0x04, 0x00, 0x00, 0x00, 0x0b, 0x00, 0x00, 0x00,
  0x64, 0x65, 0x6e, 0x73, 0x65, 0x5f, 0x69, 0x6e, 0x70, 0x75, 0x74, 0x00,
  0x01, 0x00, 0x00, 0x00, 0x0c, 0x00, 0x00, 0x00, 0x08, 0x00, 0x0c, 0x00,
  0x04, 0x00, 0x08, 0x00, 0x08, 0x00, 0x00, 0x00, 0x08, 0x00, 0x00, 0x00,
  0x08, 0x00, 0x00, 0x00, 0x13, 0x00, 0x00, 0x00, 0x6d, 0x69, 0x6e, 0x5f,
  0x72, 0x75, 0x6e, 0x74, 0x69, 0x6d, 0x65, 0x5f, 0x76, 0x65, 0x72, 0x73,
  0x69, 0x6f, 0x6e, 0x00, 0xe2, 0xfa, 0xff, 0xff, 0x04, 0x00, 0x00, 0x00,
  0x10, 0x00, 0x00, 0x00, 0x31, 0x2e, 0x31, 0x34, 0x2e, 0x30, 0x00, 0x00,
  0x00, 0x00, 0x00, 0x00, 0x00, 0x00, 0x00, 0x00, 0x0f, 0x00, 0x00, 0x00,
  0x4d, 0x4c, 0x49, 0x52, 0x20, 0x43, 0x6f, 0x6e, 0x76, 0x65, 0x72, 0x74,
  0x65, 0x64, 0x2e, 0x00, 0x00, 0x00, 0x0e, 0x00, 0x18, 0x00, 0x04, 0x00,
  0x08, 0x00, 0x0c, 0x00, 0x10, 0x00, 0x14, 0x00, 0x0e, 0x00, 0x00, 0x00,
  0x14, 0x00, 0x00, 0x00, 0x30, 0x00, 0x00, 0x00, 0x34, 0x00, 0x00, 0x00,
  0x38, 0x00, 0x00, 0x00, 0x44, 0x00, 0x00, 0x00, 0x07, 0x00, 0x00, 0x00,
  0xe8, 0x51, 0x00, 0x00, 0x70, 0x51, 0x00, 0x00, 0x50, 0x04, 0x00, 0x00,
  0xc4, 0x02, 0x00, 0x00, 0x18, 0x02, 0x00, 0x00, 0x10, 0x01, 0x00, 0x00,
  0x68, 0x00, 0x00, 0x00, 0x01, 0x00, 0x00, 0x00, 0x00, 0x00, 0x00, 0x00,
  0x01, 0x00, 0x00, 0x00, 0x06, 0x00, 0x00, 0x00, 0x03, 0x00, 0x00, 0x00,
  0xac, 0x01, 0x00, 0x00, 0xc0, 0x00, 0x00, 0x00, 0x18, 0x00, 0x00, 0x00,
  0x04, 0x00, 0x00, 0x00, 0x6d, 0x61, 0x69, 0x6e, 0x00, 0x00, 0x0a, 0x00,
  0x10, 0x00, 0x04, 0x00, 0x08, 0x00, 0x0c, 0x00, 0x0a, 0x00, 0x00, 0x00,
  0x01, 0x00, 0x00, 0x00, 0x10, 0x00, 0x00, 0x00, 0x04, 0x00, 0x00, 0x00,
  0x01, 0x00, 0x00, 0x00, 0x06, 0x00, 0x00, 0x00, 0x01, 0x00, 0x00, 0x00,
  0x05, 0x00, 0x00, 0x00, 0x64, 0xfe, 0xff, 0xff, 0x0e, 0x00, 0x00, 0x00,
  0x00, 0x00, 0x00, 0x0e, 0x02, 0x00, 0x00, 0x00, 0xac, 0xae, 0xff, 0xff,
  0x00, 0x00, 0x00, 0x09, 0x14, 0x00, 0x00, 0x00, 0x07, 0x00, 0x00, 0x00,
  0x24, 0x00, 0x00, 0x00, 0x40, 0x00, 0x00, 0x00, 0x10, 0x00, 0x00, 0x00,
  0x02, 0x00, 0x00, 0x00, 0x01, 0x00, 0x00, 0x00, 0x0a, 0x00, 0x00, 0x00,
  0x02, 0x00, 0x00, 0x00, 0xff, 0xff, 0xff, 0xff, 0x0a, 0x00, 0x00, 0x00,
  0x19, 0x00, 0x00, 0x00, 0x53, 0x74, 0x61, 0x74, 0x65, 0x66, 0x75, 0x6c,
  0x50, 0x61, 0x72, 0x74, 0x69, 0x74, 0x69, 0x6f, 0x6e, 0x65, 0x64, 0x43,
  0x61, 0x6c, 0x6c, 0x3a, 0x30, 0x00, 0x00, 0x00, 0x94, 0xae, 0xff, 0xff,
  0x08, 0x00, 0x00, 0x00, 0x0c, 0x00, 0x00, 0x00, 0x01, 0x00, 0x00, 0x00,
  0x00, 0x00, 0x80, 0x3b, 0x01, 0x00, 0x00, 0x00, 0x80, 0xff, 0xff, 0xff,
  0xff, 0xff, 0xff, 0xff, 0x26, 0xff, 0xff, 0xff, 0x00, 0x00, 0x00, 0x08,
  0x18, 0x00, 0x00, 0x00, 0x0c, 0x00, 0x00, 0x00, 0x04, 0x00, 0x00, 0x00,
  0x9c, 0xae, 0xff, 0xff, 0x01, 0x00, 0x00, 0x00, 0x05, 0x00, 0x00, 0x00,
  0x03, 0x00, 0x00, 0x00, 0x04, 0x00, 0x00, 0x00, 0x02, 0x00, 0x00, 0x00,
  0x03, 0x00, 0x00, 0x00, 0x50, 0xaf, 0xff, 0xff, 0x00, 0x00, 0x00, 0x09,
  0x14, 0x00, 0x00, 0x00, 0x06, 0x00, 0x00, 0x00, 0x24, 0x00, 0x00, 0x00,
  0x74, 0x00, 0x00, 0x00, 0x10, 0x00, 0x00, 0x00, 0x02, 0x00, 0x00, 0x00,
  0x01, 0x00, 0x00, 0x00, 0x0a, 0x00, 0x00, 0x00, 0x02, 0x00, 0x00, 0x00,
  0xff, 0xff, 0xff, 0xff, 0x0a, 0x00, 0x00, 0x00, 0x4d, 0x00, 0x00, 0x00,
  0x73, 0x65, 0x71, 0x75, 0x65, 0x6e, 0x74, 0x69, 0x61, 0x6c, 0x2f, 0x64,
  0x65, 0x6e, 0x73, 0x65, 0x2f, 0x42, 0x69, 0x61, 0x73, 0x41, 0x64, 0x64,
  0x3b, 0x73, 0x65, 0x71, 0x75, 0x65, 0x6e, 0x74, 0x69, 0x61, 0x6c, 0x2f,
  0x64, 0x65, 0x6e, 0x73, 0x65, 0x5f, 0x31, 0x2f, 0x4d, 0x61, 0x74, 0x4d,
  0x75, 0x6c, 0x3b, 0x73, 0x65, 0x71, 0x75, 0x65, 0x6e, 0x74, 0x69, 0x61,
  0x6c, 0x2f, 0x64, 0x65, 0x6e, 0x73, 0x65, 0x5f, 0x31, 0x2f, 0x42, 0x69,
  0x61, 0x73, 0x41, 0x64, 0x64, 0x00, 0x00, 0x00, 0x6c, 0xaf, 0xff, 0xff,
  0x08, 0x00, 0x00, 0x00, 0x0c, 0x00, 0x00, 0x00, 0x01, 0x00, 0x00, 0x00,
  0xca, 0x0c, 0x6f, 0x3f, 0x01, 0x00, 0x00, 0x00, 0x80, 0xff, 0xff, 0xff,
  0xff, 0xff, 0xff, 0xff, 0x00, 0x00, 0x0e, 0x00, 0x14, 0x00, 0x00, 0x00,
  0x08, 0x00, 0x0c, 0x00, 0x07, 0x00, 0x10, 0x00, 0x0e, 0x00, 0x00, 0x00,
  0x00, 0x00, 0x00, 0x08, 0x18, 0x00, 0x00, 0x00, 0x0c, 0x00, 0x00, 0x00,
  0x04, 0x00, 0x00, 0x00, 0x84, 0xaf, 0xff, 0xff, 0x01, 0x00, 0x00, 0x00,
  0x04, 0x00, 0x00, 0x00, 0x03, 0x00, 0x00, 0x00, 0x00, 0x00, 0x00, 0x00,
  0x01, 0x00, 0x00, 0x00, 0xff, 0xff, 0xff, 0xff, 0x0c, 0x00, 0x10, 0x00,
  0x0b, 0x00, 0x00, 0x00, 0x0c, 0x00, 0x04, 0x00, 0x0c, 0x00, 0x00, 0x00,
  0x09, 0x00, 0x00, 0x00, 0x00, 0x00, 0x00, 0x09, 0x04, 0x00, 0x00, 0x00,
  0x54, 0xb0, 0xff, 0xff, 0x00, 0x00, 0x00, 0x09, 0x14, 0x00, 0x00, 0x00,
  0x05, 0x00, 0x00, 0x00, 0x24, 0x00, 0x00, 0x00, 0x40, 0x00, 0x00, 0x00,
  0x10, 0x00, 0x00, 0x00, 0x02, 0x00, 0x00, 0x00, 0x01, 0x00, 0x00, 0x00,
  0x19, 0x00, 0x00, 0x00, 0x02, 0x00, 0x00, 0x00, 0xff, 0xff, 0xff, 0xff,
  0x19, 0x00, 0x00, 0x00, 0x18, 0x00, 0x00, 0x00, 0x73, 0x65, 0x71, 0x75,
  0x65, 0x6e, 0x74, 0x69, 0x61, 0x6c, 0x2f, 0x64, 0x65, 0x6e, 0x73, 0x65,
  0x2f, 0x4d, 0x61, 0x74, 0x4d, 0x75, 0x6c, 0x31, 0x00, 0x00, 0x00, 0x00,
  0x3c, 0xb0, 0xff, 0xff, 0x08, 0x00, 0x00, 0x00, 0x0c, 0x00, 0x00, 0x00,
  0x01, 0x00, 0x00, 0x00, 0xd2, 0xb6, 0x40, 0x3f, 0x01, 0x00, 0x00, 0x00,
  0x80, 0xff, 0xff, 0xff, 0xff, 0xff, 0xff, 0xff, 0xda, 0xfd, 0xff, 0xff,
  0x04, 0x00, 0x00, 0x00, 0x28, 0x00, 0x00, 0x00, 0x27, 0xfe, 0xff, 0xff,
  0x34, 0x00, 0x00, 0x00, 0x80, 0x00, 0x00, 0x00, 0x49, 0xff, 0xff, 0xff,
  0x8e, 0x00, 0x00, 0x00, 0xb1, 0x03, 0x00, 0x00, 0xc0, 0xfe, 0xff, 0xff,
  0xe4, 0x01, 0x00, 0x00, 0xf3, 0xfb, 0xff, 0xff, 0xa3, 0xfe, 0xff, 0xff,
  0x6a, 0xb1, 0xff, 0xff, 0x00, 0x00, 0x00, 0x02, 0x10, 0x00, 0x00, 0x00,
  0x04, 0x00, 0x00, 0x00, 0x10, 0x00, 0x00, 0x00, 0x48, 0x00, 0x00, 0x00,
  0x01, 0x00, 0x00, 0x00, 0x0a, 0x00, 0x00, 0x00, 0x34, 0x00, 0x00, 0x00,
  0x73, 0x65, 0x71, 0x75, 0x65, 0x6e, 0x74, 0x69, 0x61, 0x6c, 0x2f, 0x64,
  0x65, 0x6e, 0x73, 0x65, 0x5f, 0x31, 0x2f, 0x4d, 0x61, 0x74, 0x4d, 0x75,
  0x6c, 0x3b, 0x73, 0x65, 0x71, 0x75, 0x65, 0x6e, 0x74, 0x69, 0x61, 0x6c,
  0x2f, 0x64, 0x65, 0x6e, 0x73, 0x65, 0x5f, 0x31, 0x2f, 0x42, 0x69, 0x61,
  0x73, 0x41, 0x64, 0x64, 0x00, 0x00, 0x00, 0x00, 0xec, 0xb0, 0xff, 0xff,
  0x08, 0x00, 0x00, 0x00, 0x0c, 0x00, 0x00, 0x00, 0x01, 0x00, 0x00, 0x00,
  0x79, 0x4b, 0x35, 0x3b, 0x01, 0x00, 0x00, 0x00, 0x00, 0x00, 0x00, 0x00,
  0x00, 0x00, 0x00, 0x00, 0x00, 0x00, 0x00, 0x00, 0x8e, 0xfe, 0xff, 0xff,
  0x04, 0x00, 0x00, 0x00, 0xfa, 0x00, 0x00, 0x00, 0xb1, 0x9c, 0x05, 0x68,
  0x37, 0x2c, 0x24, 0x8f, 0x97, 0x7f, 0x42, 0xc2, 0xcd, 0x3d, 0xe4, 0x02,
  0x67, 0x5d, 0x4a, 0xc2, 0xfc, 0x26, 0x1e, 0x4f, 0xea, 0xf7, 0xd2, 0xa2,
  0x77, 0x0d, 0xc9, 0xb8, 0x10, 0xfd, 0xf7, 0x72, 0x74, 0xb2, 0x97, 0xfc,
  0x77, 0x51, 0xfe, 0xad, 0xfc, 0x4f, 0x37, 0x43, 0x34, 0x03, 0x00, 0xba,
  0x2d, 0xef, 0x60, 0x01, 0x6d, 0xce, 0x04, 0x5e, 0xfa, 0x55, 0xd6, 0x00,
  0x58, 0x03, 0xcd, 0xe9, 0x3f, 0x35, 0x39, 0xed, 0xf8, 0x34, 0x8b, 0xda,
  0x68, 0x23, 0x28, 0x68, 0xdc, 0xdf, 0x68, 0x75, 0xd0, 0x5b, 0xdd, 0xf1,
  0x3c, 0xbb, 0xbb, 0xfe, 0x15, 0x26, 0x14, 0x3a, 0x35, 0xab, 0xd8, 0xb7,
  0x78, 0x03, 0x66, 0x3c, 0x20, 0x9c, 0x44, 0x00, 0x8f, 0x53, 0x5b, 0xbd,
  0xc2, 0x65, 0x5d, 0xd4, 0xba, 0xa1, 0x07, 0x4f, 0x2e, 0x2e, 0xe5, 0x4e,
  0xa3, 0x12, 0x2c, 0xbd, 0xe0, 0x0c, 0xf1, 0xed, 0x68, 0x0c, 0x51, 0x9c,
  0xcf, 0xd3, 0x57, 0xf1, 0x39, 0xdd, 0x48, 0x5f, 0xe5, 0xa1, 0x6b, 0x6c,
  0x02, 0x31, 0x1c, 0xde, 0xe1, 0xf8, 0x0d, 0xf9, 0xe5, 0xd0, 0x5d, 0xe8,
  0x78, 0xdb, 0xa0, 0x71, 0xe0, 0x01, 0x6e, 0xda, 0x5b, 0x71, 0xfc, 0xd0,
  0xcd, 0x38, 0x36, 0x0f, 0x46, 0xda, 0xcb, 0x16, 0x78, 0xfb, 0x2b, 0xa9,
  0x3e, 0x23, 0x65, 0xb0, 0x55, 0xc1, 0x39, 0x00, 0x47, 0xb7, 0xf9, 0x2c,
  0x1a, 0xa5, 0x51, 0xe1, 0x6e, 0x45, 0xd9, 0x5a, 0xf7, 0x6a, 0x28, 0xed,
  0xaf, 0xb7, 0xb3, 0x08, 0xee, 0xc5, 0x50, 0x68, 0x5c, 0x0a, 0x2e, 0xa9,
  0x50, 0x07, 0xbe, 0xb1, 0x71, 0x39, 0xc8, 0x08, 0x97, 0xba, 0x4f, 0xa0,
  0xef, 0x20, 0xc4, 0x61, 0x32, 0x73, 0x7a, 0xa8, 0x69, 0x24, 0x02, 0x10,
  0x12, 0x73, 0xd0, 0x06, 0xd9, 0x3a, 0x00, 0x00, 0xf2, 0xb2, 0xff, 0xff,
  0x00, 0x00, 0x00, 0x09, 0x10, 0x00, 0x00, 0x00, 0x03, 0x00, 0x00, 0x00,
  0x14, 0x00, 0x00, 0x00, 0x30, 0x00, 0x00, 0x00, 0x02, 0x00, 0x00, 0x00,
  0x0a, 0x00, 0x00, 0x00, 0x19, 0x00, 0x00, 0x00, 0x19, 0x00, 0x00, 0x00,
  0x73, 0x65, 0x71, 0x75, 0x65, 0x6e, 0x74, 0x69, 0x61, 0x6c, 0x2f, 0x64,
  0x65, 0x6e, 0x73, 0x65, 0x5f, 0x31, 0x2f, 0x4d, 0x61, 0x74, 0x4d, 0x75,
  0x6c, 0x00, 0x00, 0x00, 0x5c, 0xb2, 0xff, 0xff, 0x08, 0x00, 0x00, 0x00,
  0x0c, 0x00, 0x00, 0x00, 0x01, 0x00, 0x00, 0x00, 0xa6, 0xd4, 0x70, 0x3b,
  0x01, 0x00, 0x00, 0x00, 0x00, 0x00, 0x00, 0x00, 0x00, 0x00, 0x00, 0x00,
  0x00, 0x00, 0x00, 0x00, 0x00, 0x00, 0x06, 0x00, 0x08, 0x00, 0x04, 0x00,
  0x06, 0x00, 0x00, 0x00, 0x04, 0x00, 0x00, 0x00, 0x90, 0x4c, 0x00, 0x00,
  0x1a, 0x05, 0x06, 0x09, 0x0a, 0xf7, 0xcf, 0xe3, 0xe3, 0xd1, 0xe4, 0xf0,
  0xf6, 0xe2, 0x07, 0x0a, 0x1b, 0x38, 0x43, 0x27, 0x25, 0x24, 0x19, 0x16,
  0x05, 0xff, 0x03, 0x0a, 0xea, 0xf8, 0xff, 0xfe, 0xf9, 0xf3, 0x01, 0xf8,
  0x0b, 0x03, 0xeb, 0xf7, 0x05, 0x17, 0x12, 0xf6, 0xfa, 0x0e, 0x00, 0x10,
  0x0b, 0xfa, 0xff, 0xff, 0x05, 0x0c, 0x08, 0x06, 0x15, 0x0e, 0x12, 0x13,
  0x25, 0x13, 0x09, 0x04, 0x03, 0x00, 0x0a, 0xfe, 0xf8, 0xff, 0x04, 0x09,
  0x04, 0x06, 0x0f, 0x0c, 0x04, 0x09, 0x16, 0x13, 0x01, 0x12, 0x09, 0x0b,
  0x1e, 0x15, 0x0a, 0x0c, 0x01, 0x05, 0xfa, 0xfd, 0x03, 0x06, 0x09, 0x0a,
  0x06, 0x0e, 0x18, 0x21, 0x1f, 0x0e, 0x14, 0x19, 0x0a, 0xff, 0xff, 0x07,
  0xfc, 0xf9, 0x0b, 0x06, 0x0b, 0x09, 0x1b, 0x16, 0x1e, 0x16, 0x11, 0x02,
  0x01, 0x08, 0x19, 0x1c, 0x15, 0x18, 0x15, 0x17, 0x0b, 0x04, 0xf5, 0xf5,
  0xfc, 0x01, 0xfe, 0x0f, 0x0e, 0x11, 0x12, 0x12, 0x0c, 0x14, 0x14, 0x0a,
  0x18, 0x08, 0x0e, 0x0a, 0x00, 0xfe, 0x0a, 0x20, 0x22, 0x28, 0x20, 0x1b,
  0x18, 0x1a, 0x06, 0x1c, 0x20, 0x1c, 0x1d, 0x20, 0x29, 0x33, 0x34, 0x26,
  0x2e, 0x1b, 0x10, 0x1e, 0x1f, 0x20, 0x12, 0x13, 0x14, 0x13, 0x21, 0x1a,
  0x1a, 0x1a, 0x1e, 0x10, 0x20, 0x13, 0x26, 0x33, 0x30, 0x24, 0x21, 0x2d,
  0x34, 0x2d, 0x37, 0x37, 0x36, 0x31, 0x2a, 0x1f, 0x1d, 0x21, 0x35, 0x39,
  0x37, 0x2b, 0x27, 0x30, 0x2e, 0x1c, 0x21, 0x3b, 0x2d, 0x20, 0x20, 0x30,
  0x2c, 0x2b, 0x25, 0x1a, 0x0d, 0x26, 0x22, 0x21, 0x2d, 0x26, 0x32, 0x35,
  0x31, 0x25, 0x19, 0x27, 0x2f, 0x20, 0x1e, 0x17, 0x25, 0x25, 0x21, 0x3a,
  0x1e, 0x15, 0x2e, 0x1a, 0x1c, 0x20, 0x1d, 0x20, 0x23, 0x27, 0x2d, 0x2e,
  0x34, 0x32, 0x21, 0x25, 0x1b, 0x1c, 0x1e, 0x10, 0x0a, 0x0b, 0x16, 0x1a,
  0x0f, 0x15, 0x2d, 0x3a, 0x35, 0x32, 0x2d, 0x27, 0x1f, 0x17, 0x1a, 0x30,
  0x2e, 0x22, 0x16, 0xfc, 0xf8, 0xff, 0x11, 0x29, 0x2a, 0x26, 0x1d, 0x2a,
  0x2d, 0x34, 0x3d, 0x37, 0x30, 0x26, 0x1b, 0x1b, 0x1e, 0x0e, 0x10, 0x13,
  0x19, 0x13, 0x0c, 0x22, 0x1b, 0x1f, 0x17, 0x2a, 0x2e, 0x36, 0x38, 0x2e,
  0x24, 0x1e, 0x29, 0x20, 0x18, 0x1b, 0x0e, 0x00, 0x1d, 0x25, 0x1b, 0x0d,
  0x0a, 0x18, 0x16, 0x1a, 0x17, 0x18, 0x1a, 0x20, 0x1a, 0x18, 0x15, 0x1c,
  0x13, 0x16, 0x10, 0x1a, 0x25, 0x12, 0x1a, 0x18, 0x22, 0x1c, 0x1b, 0x14,
  0x1d, 0x16, 0x0f, 0x15, 0x0c, 0x0b, 0x10, 0x02, 0x15, 0x15, 0x12, 0x18,
  0x10, 0x08, 0x0f, 0x15, 0x16, 0x1e, 0x0f, 0x0e, 0x16, 0x1b, 0x18, 0x1f,
  0x14, 0x22, 0x18, 0x23, 0x25, 0x25, 0x26, 0x32, 0x30, 0x26, 0x24, 0x23,
  0x27, 0x21, 0x25, 0x22, 0x17, 0x1a, 0x1e, 0x1f, 0x21, 0x20, 0x19, 0x1f,
  0x17, 0x0b, 0x0f, 0x22, 0x2d, 0x2d, 0x0d, 0x10, 0x24, 0x10, 0x15, 0x17,
  0x1d, 0x1d, 0x20, 0x23, 0x22, 0x14, 0x22, 0x28, 0x39, 0x41, 0x1e, 0x40,
  0x45, 0x3b, 0x44, 0x39, 0x35, 0x2d, 0x27, 0x36, 0x21, 0x1e, 0x18, 0x1f,
  0x26, 0x27, 0x25, 0x2c, 0x22, 0x2d, 0x2e, 0x0c, 0x04, 0x17, 0x0f, 0xfa,
  0x0f, 0x0c, 0x09, 0x1a, 0x24, 0x4d, 0x44, 0x26, 0x25, 0x1a, 0xed, 0x06,
  0x0e, 0x0b, 0x01, 0x05, 0x0c, 0x24, 0x27, 0x27, 0x23, 0x0a, 0xfd, 0x02,
  0x11, 0xf0, 0xf2, 0xe9, 0xf6, 0xfb, 0x05, 0x13, 0x1f, 0x1a, 0x10, 0x26,
  0x29, 0x2b, 0x06, 0x14, 0x1a, 0x39, 0x30, 0x37, 0x3b, 0x39, 0x2d, 0x24,
  0x34, 0x29, 0x14, 0x05, 0x01, 0xff, 0x1f, 0x17, 0x13, 0x22, 0x25, 0x45,
  0x41, 0x2d, 0x47, 0x4c, 0x2b, 0x30, 0x1c, 0x0b, 0x2b, 0x2c, 0x23, 0x2b,
  0x30, 0x1e, 0x20, 0x25, 0x30, 0x12, 0x1c, 0x1e, 0x21, 0x1b, 0x30, 0x2a,
  0x23, 0x02, 0xff, 0x27, 0x1b, 0x2d, 0x1e, 0x07, 0x1e, 0x1a, 0x32, 0x18,
  0x0a, 0x0f, 0x04, 0xec, 0xf3, 0x20, 0x32, 0x13, 0x0d, 0x21, 0x21, 0x21,
  0x21, 0x21, 0x21, 0x1a, 0x04, 0x02, 0x06, 0x0a, 0x16, 0x0a, 0x05, 0x08,
  0xf0, 0xe0, 0xe7, 0xf2, 0x12, 0x07, 0x06, 0x10, 0x08, 0x09, 0x1e, 0x1e,
  0x1e, 0x20, 0x1f, 0x4d, 0x45, 0x39, 0x43, 0x37, 0x0a, 0x2d, 0x1b, 0x15,
  0x1d, 0x19, 0xd3, 0xf7, 0x05, 0xf8, 0xe8, 0xf9, 0xfe, 0xff, 0x20, 0x1c,
  0x1b, 0x1b, 0x34, 0x17, 0x0d, 0xf9, 0xec, 0x13, 0x10, 0x15, 0x0e, 0x15,
  0x25, 0x1e, 0x1e, 0x18, 0x25, 0x22, 0x10, 0x0a, 0xf2, 0x33, 0x29, 0x19,
  0x18, 0x18, 0x18, 0x18, 0x18, 0x1b, 0x14, 0x07, 0x07, 0xfb, 0x02, 0x05,
  0x11, 0x14, 0x0b, 0x16, 0x1b, 0x26, 0x1a, 0x0a, 0x16, 0x16, 0x15, 0x15,
  0x15, 0x15, 0x15, 0x15, 0x15, 0x14, 0x14, 0x14, 0x14, 0x14, 0x14, 0x14,
  0x13, 0x03, 0x02, 0x11, 0x11, 0x13, 0x13, 0x12, 0x12, 0x12, 0x12, 0x12,
  0x12, 0x12, 0x11, 0x11, 0x11, 0x11, 0x11, 0x11, 0x11, 0x10, 0x10, 0x22,
  0x10, 0x21, 0x25, 0x00, 0x06, 0x01, 0x20, 0x2a, 0x24, 0xea, 0x1c, 0x19,
  0xe9, 0x0b, 0x32, 0xf4, 0x16, 0x0d, 0xed, 0xfd, 0x0d, 0x1b, 0xd9, 0xd1,
  0x1b, 0x00, 0xf7, 0xfc, 0xf9, 0xfa, 0x01, 0x0f, 0x05, 0x07, 0xe5, 0xe1,
  0x06, 0x0a, 0xf3, 0x0a, 0x0a, 0x0a, 0x09, 0x09, 0x09, 0x09, 0x09, 0x09,
  0x08, 0x08, 0x09, 0xf5, 0x08, 0xf4, 0x07, 0xe5, 0x00, 0x14, 0x0d, 0xec,
  0xfb, 0x01, 0x02, 0xf5, 0xf0, 0xf0, 0xf7, 0xfc, 0x04, 0x05, 0x05, 0x05,
  0x05, 0x04, 0x04, 0x04, 0x04, 0x04, 0x04, 0x03, 0x03, 0x0a, 0x03, 0xfc,
  0xff, 0x02, 0x02, 0x02, 0x01, 0x02, 0x01, 0x02, 0x01, 0x01, 0x01, 0x01,
  0x01, 0x00, 0x00, 0x00, 0x10, 0x1b, 0x2a, 0x27, 0x2d, 0x1b, 0x15, 0x1c,
  0x34, 0x24, 0x2f, 0x30, 0x32, 0x36, 0x42, 0x3d, 0x46, 0x3d, 0x32, 0x33,
  0x22, 0x34, 0x30, 0x32, 0x38, 0x32, 0x2d, 0x31, 0x2c, 0x24, 0x26, 0x2d,
  0x2f, 0x28, 0x2d, 0x32, 0x1c, 0x2b, 0x32, 0x42, 0x14, 0x31, 0x2a, 0x31,
  0x24, 0x29, 0x2d, 0x29, 0x21, 0x24, 0x21, 0x1d, 0x28, 0x27, 0x21, 0x1d,
  0x27, 0x25, 0x23, 0x18, 0x32, 0x2c, 0x26, 0x2a, 0x25, 0x20, 0x22, 0x1f,
  0x18, 0x22, 0x2e, 0x2b, 0x24, 0x2e, 0x2f, 0x32, 0x2f, 0x34, 0x3c, 0x2f,
  0x2e, 0x46, 0x35, 0x3e, 0x39, 0x35, 0x25, 0x27, 0x27, 0x1d, 0x1b, 0x20,
  0x23, 0x23, 0x26, 0x25, 0x22, 0x22, 0x30, 0x3e, 0x2e, 0x2e, 0x2d, 0x38,
  0x2d, 0x2a, 0x23, 0x2a, 0x22, 0x1d, 0x24, 0x31, 0x2f, 0x29, 0x37, 0x32,
  0x3f, 0x32, 0x26, 0x38, 0x3c, 0x21, 0x2f, 0x2e, 0x33, 0x27, 0x1e, 0x24,
  0x22, 0x1c, 0x21, 0x1a, 0x24, 0x2b, 0x1f, 0x26, 0x2e, 0x30, 0x37, 0x30,
  0x32, 0x37, 0x2f, 0x2b, 0x2e, 0x2b, 0x2a, 0x30, 0x29, 0x2f, 0x34, 0x20,
  0x19, 0x28, 0x1f, 0x1a, 0x2d, 0x26, 0x22, 0x3b, 0x3b, 0x19, 0x20, 0x21,
  0x2b, 0x31, 0x32, 0x1f, 0x2e, 0x3a, 0x3b, 0x34, 0x2f, 0x32, 0x34, 0x28,
  0x20, 0x22, 0x31, 0x2d, 0x18, 0x1c, 0x12, 0x29, 0x27, 0x2d, 0x33, 0x38,
  0x39, 0x2c, 0x29, 0x2e, 0x2d, 0x2a, 0x30, 0x29, 0x30, 0x28, 0x27, 0x39,
  0x46, 0x40, 0x38, 0x1d, 0x20, 0x22, 0x26, 0x26, 0x23, 0x1d, 0x31, 0x39,
  0x2d, 0x20, 0x27, 0x2b, 0x26, 0x1b, 0x12, 0x0b, 0x28, 0x1b, 0x2e, 0x25,
  0x29, 0x33, 0x29, 0x2e, 0x33, 0x2f, 0x18, 0x18, 0x20, 0x24, 0x2d, 0x1e,
  0x0c, 0x13, 0x2f, 0x37, 0x2e, 0x11, 0x1b, 0x12, 0x0f, 0x1e, 0x18, 0x1b,
  0x22, 0x28, 0x35, 0x2e, 0x27, 0x29, 0x31, 0x2e, 0x32, 0x36, 0x2d, 0x37,
  0x26, 0x21, 0x28, 0x2f, 0x29, 0x2d, 0x2d, 0x25, 0x31, 0x27, 0x2f, 0x2b,
  0x0f, 0x13, 0x12, 0x19, 0x1e, 0x19, 0x13, 0x31, 0x3a, 0x24, 0x1b, 0x21,
  0x20, 0x0d, 0x09, 0x17, 0x22, 0x24, 0x23, 0x29, 0x2c, 0x32, 0x2c, 0x2e,
  0x2a, 0x27, 0x20, 0x2b, 0x29, 0x2a, 0x2f, 0x26, 0x2d, 0x27, 0x25, 0x2c,
  0x33, 0x25, 0x2c, 0x21, 0x1a, 0x10, 0x15, 0x1a, 0x11, 0x23, 0x28, 0x2f,
  0x25, 0x30, 0x23, 0x15, 0x1d, 0x19, 0x1a, 0x15, 0x1b, 0x1d, 0x20, 0x29,
  0x21, 0x27, 0x22, 0x1e, 0x1a, 0x22, 0x22, 0x29, 0x2f, 0x24, 0x20, 0x21,
  0x20, 0x23, 0x23, 0x1a, 0x28, 0x2b, 0x24, 0x1f, 0x15, 0x1b, 0x29, 0x22,
  0x22, 0x29, 0x2b, 0x24, 0x26, 0x1c, 0x1d, 0x1d, 0x27, 0x20, 0x1b, 0x22,
  0x1d, 0x25, 0x25, 0x20, 0x24, 0x29, 0x21, 0x26, 0x24, 0x1c, 0x28, 0x2e,
  0x1a, 0x25, 0x20, 0x1f, 0x24, 0x1e, 0x28, 0x32, 0x26, 0x23, 0x1e, 0x23,
  0x29, 0x1a, 0x1b, 0x1e, 0x28, 0x18, 0x1b, 0x1d, 0x3f, 0x2a, 0x23, 0x25,
  0x25, 0x25, 0x24, 0x23, 0x24, 0x25, 0x2a, 0x29, 0x28, 0x1c, 0x2a, 0x22,
  0x20, 0x24, 0x03, 0x01, 0xee, 0x04, 0x2b, 0x2a, 0x19, 0x1b, 0x28, 0x38,
  0x2e, 0x36, 0x39, 0x28, 0x2e, 0x2b, 0x2d, 0x37, 0x3e, 0x4e, 0x3a, 0x43,
  0x57, 0x26, 0x0c, 0x1a, 0x32, 0x37, 0x32, 0x36, 0x31, 0x1e, 0x1d, 0x16,
  0x2c, 0x55, 0x52, 0x50, 0x3b, 0x45, 0x39, 0x35, 0x45, 0x25, 0x29, 0x29,
  0x2b, 0x11, 0x03, 0x08, 0x18, 0x1a, 0x11, 0xff, 0xf1, 0x07, 0x16, 0x29,
  0x35, 0x3e, 0x30, 0x1b, 0x2b, 0x30, 0x0a, 0x15, 0x2f, 0x4b, 0x2e, 0x2e,
  0x3c, 0x3e, 0x34, 0x29, 0x33, 0x19, 0x14, 0x28, 0x2e, 0x23, 0x2f, 0x12,
  0x19, 0x0e, 0xfb, 0x16, 0x36, 0x16, 0x04, 0x0e, 0x36, 0x36, 0x30, 0x4a,
  0x35, 0x33, 0x37, 0x37, 0x32, 0x3f, 0x3f, 0x3e, 0x47, 0x4b, 0x4f, 0x58,
  0x49, 0x37, 0x2c, 0x47, 0x29, 0x4a, 0x4d, 0x20, 0x2a, 0x20, 0x26, 0x31,
  0x1d, 0x20, 0x30, 0x42, 0x49, 0x4b, 0x4d, 0x34, 0x47, 0x2b, 0x23, 0x3e,
  0x1f, 0x29, 0x29, 0x29, 0x29, 0x29, 0x29, 0x23, 0x0e, 0x0e, 0x1c, 0x25,
  0x23, 0x17, 0x1d, 0x27, 0x04, 0xef, 0xed, 0x05, 0x27, 0x1a, 0x15, 0x21,
  0x15, 0x13, 0x29, 0x29, 0x29, 0x19, 0x5b, 0x54, 0x54, 0x67, 0x55, 0x59,
  0x54, 0x55, 0x35, 0x18, 0x27, 0x18, 0xe1, 0x0a, 0x09, 0x06, 0xe1, 0xf7,
  0xff, 0x0b, 0x17, 0x29, 0x29, 0x29, 0x1d, 0x2d, 0x33, 0x36, 0x3d, 0x2c,
  0x31, 0x3d, 0x3e, 0x39, 0x33, 0x34, 0x3a, 0x38, 0x30, 0x31, 0x26, 0x24,
  0x4d, 0x10, 0x17, 0x29, 0x29, 0x29, 0x29, 0x29, 0x29, 0x25, 0x2d, 0x3d,
  0x37, 0x41, 0x3e, 0x3c, 0x3a, 0x31, 0x36, 0x27, 0x3b, 0x45, 0x38, 0x43,
  0x29, 0x29, 0x29, 0x29, 0x29, 0x29, 0x29, 0x29, 0x29, 0x29, 0x29, 0x29,
  0x29, 0x29, 0x29, 0x29, 0x29, 0x25, 0x25, 0x26, 0x27, 0x29, 0x29, 0x29,
  0x29, 0x29, 0x29, 0x29, 0x29, 0x29, 0x29, 0x29, 0x29, 0x29, 0x29, 0x29,
  0x29, 0x29, 0x29, 0x1c, 0x29, 0x3a, 0x2b, 0x27, 0x15, 0x13, 0x3b, 0x36,
  0x43, 0x44, 0x73, 0x7f, 0x41, 0x2b, 0x63, 0x2e, 0x33, 0x29, 0x15, 0x1a,
  0x29, 0x32, 0x01, 0xe4, 0x34, 0x13, 0x2a, 0x2f, 0x0e, 0x11, 0x07, 0x14,
  0x28, 0x25, 0x03, 0x0d, 0x25, 0x29, 0x38, 0x29, 0x29, 0x29, 0x29, 0x29,
  0x29, 0x29, 0x29, 0x29, 0x29, 0x29, 0x2a, 0x41, 0x31, 0x39, 0x22, 0x43,
  0x36, 0x25, 0x1d, 0x46, 0x38, 0x30, 0x2f, 0x3b, 0x3f, 0x3f, 0x3a, 0x34,
  0x2c, 0x29, 0x29, 0x29, 0x29, 0x29, 0x29, 0x29, 0x29, 0x29, 0x29, 0x29,
  0x29, 0x16, 0x29, 0x36, 0x31, 0x29, 0x29, 0x29, 0x2b, 0x2a, 0x29, 0x29,
  0x29, 0x29, 0x29, 0x29, 0x29, 0x29, 0x29, 0x29, 0x3f, 0x21, 0x2e, 0x31,
  0x39, 0x35, 0x1b, 0x24, 0x17, 0x0f, 0x10, 0x19, 0x24, 0x22, 0x15, 0x18,
  0x17, 0x1b, 0x0a, 0x09, 0x27, 0x2c, 0x18, 0x22, 0x1b, 0x19, 0x1f, 0x1f,
  0x1b, 0x21, 0x25, 0x31, 0x29, 0x20, 0x3c, 0x24, 0x2e, 0x31, 0x49, 0x36,
  0x3f, 0x4b, 0x2e, 0x24, 0x2b, 0x23, 0x29, 0x2d, 0x30, 0x29, 0x2c, 0x24,
  0x2b, 0x2d, 0x29, 0x2d, 0x22, 0x1a, 0x18, 0x1d, 0x2d, 0x1d, 0x2a, 0x1f,
  0x21, 0x2a, 0x29, 0x2a, 0x26, 0x27, 0x2c, 0x26, 0x24, 0x24, 0x24, 0x32,
  0x2e, 0x26, 0x25, 0x2a, 0x30, 0x29, 0x32, 0x1e, 0x24, 0x2c, 0x22, 0x1d,
  0x1e, 0x2b, 0x27, 0x2c, 0x26, 0x2c, 0x2c, 0x29, 0x27, 0x2a, 0x20, 0x22,
  0x29, 0x2b, 0x26, 0x29, 0x2f, 0x28, 0x2b, 0x2a, 0x31, 0x24, 0x25, 0x1c,
  0x20, 0x24, 0x25, 0x1f, 0x31, 0x2c, 0x30, 0x38, 0x1d, 0x37, 0x2b, 0x2b,
  0x1e, 0x2a, 0x2a, 0x1d, 0x1f, 0x23, 0x20, 0x26, 0x30, 0x32, 0x32, 0x37,
  0x30, 0x20, 0x2b, 0x2f, 0x2c, 0x2d, 0x2a, 0x2d, 0x2f, 0x33, 0x32, 0x29,
  0x1d, 0x0f, 0x0f, 0x1e, 0x1d, 0x17, 0x1d, 0x21, 0x2d, 0x2c, 0x20, 0x12,
  0x23, 0x33, 0x2e, 0x27, 0x1a, 0x19, 0x23, 0x22, 0x27, 0x11, 0x16, 0x21,
  0x26, 0x2e, 0x24, 0x36, 0x37, 0x35, 0x35, 0x2a, 0x26, 0x2d, 0x33, 0x33,
  0x37, 0x23, 0x22, 0x23, 0x1e, 0x1a, 0x23, 0x2d, 0x28, 0x2f, 0x27, 0x23,
  0x16, 0x22, 0x2b, 0x1e, 0x14, 0x19, 0x14, 0x2d, 0x30, 0x2e, 0x2f, 0x2c,
  0x28, 0x21, 0x1d, 0x22, 0x27, 0x2f, 0x37, 0x35, 0x30, 0x2c, 0x1f, 0x25,
  0x09, 0x1e, 0x2c, 0x2b, 0x32, 0x37, 0x33, 0x26, 0x1e, 0x12, 0x23, 0x26,
  0x2c, 0x22, 0x26, 0x27, 0x2e, 0x21, 0x27, 0x38, 0x39, 0x2f, 0x27, 0x2a,
  0x1d, 0x2a, 0x23, 0x26, 0x23, 0x1e, 0x14, 0x24, 0x29, 0x2b, 0x1d, 0x2a,
  0x24, 0x23, 0x32, 0x18, 0x2e, 0x2c, 0x27, 0x28, 0x28, 0x29, 0x30, 0x2d,
  0x22, 0x1a, 0x22, 0x1e, 0x20, 0x2a, 0x26, 0x2a, 0x2d, 0x2a, 0x29, 0x1f,
  0x23, 0x22, 0x20, 0x2d, 0x20, 0x24, 0x20, 0x1f, 0x23, 0x1f, 0x1e, 0x28,
  0x2d, 0x30, 0x2a, 0x25, 0x1b, 0x24, 0x27, 0x15, 0x26, 0x28, 0x26, 0x28,
  0x27, 0x26, 0x27, 0x29, 0x28, 0x1a, 0x13, 0x1c, 0x1a, 0x1b, 0x2c, 0x28,
  0x27, 0x2e, 0x33, 0x26, 0x2d, 0x42, 0x31, 0x30, 0x21, 0x1b, 0x1b, 0x14,
  0x19, 0x18, 0x20, 0x20, 0x21, 0x1f, 0x1a, 0x1e, 0x22, 0x29, 0x24, 0x1d,
  0x27, 0x18, 0x20, 0x28, 0x1c, 0x1c, 0x18, 0x1e, 0x1b, 0x17, 0x13, 0x15,
  0x16, 0x0f, 0x12, 0x16, 0x25, 0x37, 0x32, 0x2b, 0x1a, 0x29, 0x1a, 0x18,
  0x12, 0x19, 0x18, 0x12, 0x17, 0x18, 0x17, 0x14, 0x1c, 0x1d, 0x1f, 0x25,
  0x20, 0x13, 0x32, 0x38, 0x42, 0x42, 0x32, 0x24, 0x1e, 0x20, 0x25, 0x1e,
  0x1c, 0x19, 0x25, 0x23, 0x22, 0x25, 0x2a, 0x28, 0x1f, 0x21, 0x14, 0x15,
  0x21, 0x22, 0x1f, 0x2a, 0x2e, 0x28, 0x2a, 0x30, 0x25, 0x25, 0x24, 0x1f,
  0x1c, 0x21, 0x2d, 0x26, 0x2c, 0x34, 0x3a, 0x3a, 0x43, 0x3e, 0x3e, 0x31,
  0x28, 0x31, 0x26, 0x31, 0x25, 0x28, 0x2e, 0x2a, 0x2c, 0x26, 0x2a, 0x34,
  0x31, 0x31, 0x32, 0x33, 0x2f, 0x40, 0x2b, 0x27, 0x2c, 0x2c, 0x21, 0x1e,
  0x28, 0x3d, 0x43, 0x33, 0x28, 0x33, 0x20, 0x2b, 0x36, 0x21, 0x52, 0x47,
  0x16, 0x25, 0x29, 0x28, 0x18, 0x08, 0x07, 0x0b, 0x15, 0x11, 0x36, 0x1f,
  0x19, 0x17, 0x1b, 0x1d, 0x25, 0x1c, 0x1c, 0x2f, 0x2a, 0x2b, 0x18, 0x34,
  0x0f, 0x18, 0x1a, 0x17, 0x1a, 0x1a, 0x0c, 0x15, 0x02, 0x36, 0x2c, 0x12,
  0x1c, 0x2b, 0x16, 0x31, 0x0e, 0x16, 0x13, 0x32, 0x49, 0x3b, 0x3f, 0x49,
  0x36, 0x2d, 0x1e, 0x1a, 0x2e, 0x1b, 0x27, 0x33, 0x2c, 0x28, 0x25, 0x2d,
  0x32, 0x22, 0x30, 0x2e, 0x34, 0x2f, 0x13, 0x0b, 0x29, 0x46, 0x46, 0x4a,
  0x49, 0x17, 0xff, 0x2f, 0x49, 0x43, 0x46, 0x1a, 0x0b, 0x21, 0x25, 0x29,
  0x27, 0x1a, 0x1f, 0x17, 0x19, 0x29, 0x29, 0x29, 0x29, 0x29, 0x29, 0x22,
  0x0d, 0x0a, 0x0b, 0x16, 0x24, 0x27, 0x1b, 0x0e, 0x01, 0xfa, 0xff, 0x00,
  0x14, 0x10, 0x10, 0x1c, 0x12, 0x13, 0x29, 0x29, 0x28, 0x37, 0x05, 0x1e,
  0x1f, 0x1b, 0x2c, 0x1c, 0xe9, 0xf7, 0x2c, 0x2f, 0x2a, 0x2b, 0x1d, 0x0f,
  0x12, 0x1b, 0x28, 0x28, 0x27, 0x40, 0x52, 0x29, 0x29, 0x29, 0x2c, 0x17,
  0x16, 0x11, 0x03, 0x1c, 0x17, 0x0b, 0x19, 0x12, 0x10, 0x28, 0x28, 0x29,
  0x1e, 0x29, 0x34, 0x39, 0x32, 0x3f, 0x35, 0x29, 0x29, 0x29, 0x29, 0x29,
  0x29, 0x39, 0x22, 0x16, 0x2d, 0x24, 0x24, 0x1f, 0x28, 0x1e, 0x18, 0x17,
  0x20, 0x31, 0x1a, 0x33, 0x29, 0x29, 0x29, 0x29, 0x29, 0x29, 0x29, 0x29,
  0x29, 0x29, 0x29, 0x29, 0x29, 0x29, 0x29, 0x29, 0x29, 0x1a, 0x1a, 0x2b,
  0x2a, 0x29, 0x29, 0x29, 0x29, 0x29, 0x29, 0x29, 0x29, 0x29, 0x29, 0x29,
  0x29, 0x29, 0x29, 0x29, 0x29, 0x29, 0x29, 0x40, 0x29, 0x1f, 0x37, 0x0e,
  0x40, 0x3d, 0x26, 0x33, 0x18, 0x38, 0x1c, 0xfc, 0x35, 0x21, 0xdd, 0xe4,
  0x20, 0x29, 0x18, 0x24, 0x29, 0x38, 0x3f, 0x30, 0x39, 0x49, 0x1e, 0x2e,
  0x16, 0x11, 0x4c, 0x3f, 0x25, 0x29, 0x25, 0x34, 0x29, 0x29, 0x44, 0x29,
  0x29, 0x29, 0x29, 0x29, 0x29, 0x29, 0x29, 0x29, 0x29, 0x29, 0x22, 0x11,
  0x20, 0x0f, 0x1e, 0x07, 0x18, 0x29, 0x25, 0x0b, 0x18, 0x24, 0x21, 0x17,
  0x14, 0x14, 0x18, 0x1e, 0x27, 0x29, 0x29, 0x29, 0x29, 0x29, 0x29, 0x29,
  0x29, 0x29, 0x29, 0x29, 0x29, 0x2b, 0x29, 0x31, 0x2c, 0x29, 0x29, 0x29,
  0x27, 0x28, 0x28, 0x27, 0x28, 0x29, 0x29, 0x29, 0x29, 0x29, 0x29, 0x29,
  0x09, 0x1a, 0x18, 0x0a, 0xf5, 0xde, 0xf9, 0x13, 0x2d, 0x09, 0x20, 0x29,
  0x1d, 0x26, 0x20, 0x0b, 0x21, 0x19, 0x12, 0x21, 0x3b, 0x3e, 0x2c, 0x31,
  0x36, 0x38, 0x32, 0x2d, 0x32, 0x30, 0x3c, 0x28, 0x28, 0x35, 0x3e, 0x46,
  0x2c, 0x26, 0x3e, 0x48, 0x23, 0x40, 0x46, 0x33, 0x24, 0x2f, 0x21, 0x21,
  0x21, 0x26, 0x30, 0x35, 0x34, 0x32, 0x2f, 0x35, 0x32, 0x34, 0x30, 0x2d,
  0x39, 0x34, 0x2c, 0x26, 0x27, 0x27, 0x1d, 0x1f, 0x23, 0x26, 0x27, 0x21,
  0x1f, 0x24, 0x18, 0x1f, 0x1f, 0x36, 0x2d, 0x25, 0x27, 0x33, 0x1f, 0x26,
  0x1d, 0x1f, 0x16, 0x1a, 0x15, 0x1b, 0x1e, 0x1d, 0x1c, 0x1c, 0x2e, 0x30,
  0x25, 0x2d, 0x2d, 0x34, 0x21, 0x2b, 0x2b, 0x24, 0x29, 0x30, 0x22, 0x29,
  0x23, 0x24, 0x22, 0x2a, 0x22, 0x1f, 0x1b, 0x1c, 0x2b, 0x1f, 0x12, 0x35,
  0x27, 0x13, 0x2d, 0x23, 0x2a, 0x28, 0x27, 0x20, 0x21, 0x2c, 0x21, 0x1d,
  0x2e, 0x31, 0x30, 0x2d, 0x25, 0x2a, 0x30, 0x29, 0x2f, 0x31, 0x2c, 0x26,
  0x2d, 0x29, 0x31, 0x2b, 0x30, 0x26, 0x29, 0x2f, 0x1f, 0x27, 0x22, 0x23,
  0x2f, 0x26, 0x13, 0x3a, 0x34, 0x20, 0x26, 0x22, 0x22, 0x21, 0x27, 0x25,
  0x2f, 0x31, 0x37, 0x32, 0x19, 0x1f, 0x24, 0x28, 0x2a, 0x2c, 0x31, 0x34,
  0x41, 0x2f, 0x30, 0x2a, 0x29, 0x2c, 0x23, 0x21, 0x2b, 0x31, 0x3c, 0x36,
  0x2c, 0x26, 0x2e, 0x2c, 0x2b, 0x29, 0x32, 0x1b, 0x1f, 0x36, 0x3d, 0x30,
  0x34, 0x2c, 0x26, 0x2a, 0x35, 0x32, 0x25, 0x25, 0x27, 0x2a, 0x26, 0x25,
  0x26, 0x1e, 0x31, 0x37, 0x21, 0x23, 0x2a, 0x1d, 0x24, 0x21, 0x2a, 0x25,
  0x22, 0x23, 0x30, 0x3f, 0x34, 0x2c, 0x31, 0x26, 0x26, 0x22, 0x32, 0x2c,
  0x32, 0x29, 0x20, 0x2b, 0x2a, 0x33, 0x29, 0x2d, 0x33, 0x2d, 0x32, 0x28,
  0x26, 0x1b, 0x1c, 0x1c, 0x19, 0x19, 0x2f, 0x2e, 0x42, 0x22, 0x20, 0x1e,
  0x23, 0x1f, 0x1c, 0x22, 0x27, 0x2b, 0x1f, 0x26, 0x28, 0x2b, 0x30, 0x3e,
  0x31, 0x1e, 0x25, 0x23, 0x28, 0x1e, 0x1b, 0x2e, 0x36, 0x31, 0x35, 0x27,
  0x2c, 0x24, 0x29, 0x1a, 0x18, 0x20, 0x1b, 0x26, 0x1d, 0x2f, 0x37, 0x2b,
  0x29, 0x34, 0x41, 0x2e, 0x2d, 0x21, 0x1d, 0x17, 0x20, 0x17, 0x22, 0x21,
  0x1f, 0x2b, 0x38, 0x2e, 0x20, 0x1d, 0x31, 0x21, 0x28, 0x3c, 0x26, 0x24,
  0x23, 0x1d, 0x2a, 0x1e, 0x1e, 0x20, 0x1f, 0x2a, 0x2b, 0x2d, 0x2e, 0x27,
  0x2d, 0x3c, 0x28, 0x32, 0x2a, 0x22, 0x35, 0x2f, 0x26, 0x35, 0x35, 0x2a,
  0x39, 0x2c, 0x2f, 0x32, 0x2c, 0x38, 0x2a, 0x2c, 0x2c, 0x2d, 0x29, 0x23,
  0x36, 0x35, 0x3a, 0x31, 0x2a, 0x2a, 0x29, 0x25, 0x1f, 0x26, 0x2c, 0x33,
  0x2e, 0x2b, 0x2f, 0x2a, 0x31, 0x32, 0x2f, 0x26, 0x22, 0x3b, 0x31, 0x34,
  0x37, 0x31, 0x2e, 0x25, 0x2d, 0x26, 0x29, 0x1f, 0x24, 0x22, 0x25, 0x1e,
  0x25, 0x42, 0x44, 0x23, 0x02, 0x20, 0x2c, 0x27, 0x2a, 0x3a, 0x32, 0x38,
  0x33, 0x2f, 0x27, 0x28, 0x2d, 0x31, 0x34, 0x34, 0x2b, 0x1e, 0x16, 0x13,
  0x08, 0x0f, 0x1f, 0x1f, 0x2d, 0x32, 0x27, 0x2d, 0x2c, 0x2f, 0x36, 0x33,
  0x26, 0x23, 0x2b, 0x1f, 0x2a, 0x26, 0x06, 0x14, 0x3a, 0x17, 0x2a, 0x37,
  0x30, 0x39, 0x29, 0x28, 0x18, 0x11, 0x0e, 0xff, 0x14, 0x34, 0x25, 0x2a,
  0x29, 0x12, 0x36, 0x37, 0x45, 0x24, 0x29, 0x28, 0x23, 0x0b, 0x11, 0xeb,
  0xe9, 0xfb, 0x14, 0x1e, 0x02, 0x21, 0x1e, 0x13, 0x07, 0x3a, 0x2b, 0x22,
  0x2a, 0x2d, 0x07, 0x14, 0xfe, 0x34, 0x2e, 0x20, 0x19, 0x1e, 0x1b, 0x1e,
  0x35, 0x57, 0x3a, 0x26, 0x25, 0x2a, 0x1e, 0x10, 0x18, 0x27, 0x1d, 0x15,
  0x12, 0x24, 0x03, 0x11, 0x22, 0x26, 0x14, 0x1e, 0x14, 0x12, 0x0e, 0x15,
  0x12, 0x20, 0x1a, 0x1b, 0x17, 0x1e, 0x21, 0x1f, 0x24, 0x0b, 0xfe, 0x17,
  0x29, 0x4a, 0x4b, 0x1f, 0x2a, 0x17, 0x05, 0x29, 0x21, 0x22, 0x42, 0x44,
  0x25, 0x39, 0x2e, 0x44, 0x40, 0x1f, 0x15, 0x30, 0x41, 0x29, 0x29, 0x29,
  0x29, 0x29, 0x29, 0x22, 0x0d, 0x0c, 0x11, 0x15, 0x1e, 0x16, 0x1c, 0x19,
  0x2b, 0x38, 0x3a, 0x43, 0x1f, 0x15, 0x10, 0x1a, 0x13, 0x13, 0x29, 0x29,
  0x29, 0x2b, 0x07, 0x1b, 0x20, 0x1a, 0x26, 0x1a, 0xf8, 0xf9, 0x0d, 0x39,
  0x41, 0x28, 0xe0, 0xf6, 0x15, 0x27, 0x33, 0x3f, 0x2f, 0x1b, 0x43, 0x29,
  0x29, 0x29, 0x0e, 0x0e, 0x06, 0x07, 0x04, 0x04, 0x11, 0xff, 0xfb, 0x13,
  0x18, 0x18, 0x1b, 0x05, 0x05, 0x18, 0x0b, 0x12, 0x43, 0x09, 0x18, 0x29,
  0x29, 0x29, 0x29, 0x29, 0x29, 0x25, 0x2a, 0x36, 0x39, 0x43, 0x40, 0x3d,
  0x45, 0x22, 0x1d, 0x29, 0x18, 0x0d, 0x0f, 0x17, 0x29, 0x29, 0x29, 0x29,
  0x29, 0x29, 0x29, 0x29, 0x29, 0x29, 0x29, 0x29, 0x29, 0x29, 0x29, 0x29,
  0x29, 0x27, 0x27, 0x26, 0x27, 0x29, 0x29, 0x29, 0x29, 0x29, 0x29, 0x29,
  0x29, 0x29, 0x29, 0x29, 0x29, 0x29, 0x29, 0x29, 0x29, 0x29, 0x29, 0x26,
  0x29, 0x3c, 0x30, 0x09, 0x1f, 0x18, 0x24, 0x39, 0x3f, 0x04, 0x16, 0x1a,
  0x04, 0x2d, 0x30, 0x05, 0x33, 0x29, 0x04, 0x1e, 0x29, 0x35, 0xf9, 0xe8,
  0x36, 0x1e, 0xf8, 0xfe, 0x3e, 0x3f, 0xfe, 0x0c, 0x23, 0x2c, 0x4e, 0x4d,
  0x2c, 0x29, 0x38, 0x29, 0x29, 0x29, 0x29, 0x29, 0x29, 0x29, 0x29, 0x29,
  0x29, 0x29, 0x14, 0x21, 0x1d, 0x22, 0x12, 0x28, 0x28, 0x14, 0x0a, 0x39,
  0x28, 0x1f, 0x22, 0x38, 0x37, 0x36, 0x35, 0x32, 0x2a, 0x29, 0x29, 0x29,
  0x29, 0x29, 0x29, 0x29, 0x29, 0x29, 0x29, 0x29, 0x29, 0x16, 0x29, 0x1d,
  0x22, 0x29, 0x29, 0x29, 0x28, 0x28, 0x28, 0x27, 0x28, 0x29, 0x29, 0x29,
  0x29, 0x29, 0x29, 0x29, 0x0e, 0x21, 0x2c, 0x2a, 0x36, 0x3f, 0x3c, 0x3e,
  0x40, 0x48, 0x3c, 0x37, 0x41, 0x48, 0x2f, 0x2f, 0x21, 0x08, 0xec, 0xec,
  0xf2, 0x06, 0x11, 0x21, 0x2f, 0x2e, 0x2a, 0x2d, 0x39, 0x32, 0x2d, 0x38,
  0x35, 0x37, 0x44, 0x2c, 0x2a, 0x33, 0x4b, 0x40, 0x34, 0x3e, 0x2b, 0x36,
  0x30, 0x24, 0x31, 0x1e, 0x23, 0x2c, 0x2c, 0x28, 0x2f, 0x27, 0x25, 0x29,
  0x1f, 0x20, 0x1a, 0x16, 0x15, 0x18, 0x25, 0x24, 0x21, 0x27, 0x1c, 0x25,
  0x29, 0x27, 0x28, 0x24, 0x26, 0x2c, 0x1e, 0x2e, 0x36, 0x2e, 0x2b, 0x2b,
  0x43, 0x3c, 0x33, 0x2c, 0x20, 0x25, 0x21, 0x22, 0x23, 0x26, 0x27, 0x26,
  0x1f, 0x1d, 0x26, 0x24, 0x1e, 0x25, 0x1e, 0x13, 0x1e, 0x2b, 0x20, 0x1f,
  0x27, 0x27, 0x28, 0x25, 0x2a, 0x27, 0x22, 0x28, 0x2a, 0x2b, 0x25, 0x21,
  0x31, 0x29, 0x32, 0x4d, 0x39, 0x3c, 0x28, 0x21, 0x24, 0x28, 0x20, 0x1b,
  0x1f, 0x22, 0x29, 0x2b, 0x31, 0x2f, 0x2a, 0x2a, 0x29, 0x29, 0x2d, 0x32,
  0x35, 0x2b, 0x26, 0x30, 0x24, 0x2c, 0x2d, 0x29, 0x2c, 0x28, 0x23, 0x16,
  0x10, 0x14, 0x1a, 0x1c, 0x28, 0x24, 0x22, 0x2a, 0x2f, 0x23, 0x1f, 0x18,
  0x0f, 0x0c, 0x0d, 0x0f, 0x12, 0x14, 0x22, 0x1a, 0x19, 0x1c, 0x23, 0x27,
  0x23, 0x20, 0x24, 0x2a, 0x17, 0x1e, 0x18, 0x24, 0x20, 0x22, 0x16, 0x15,
  0x12, 0x13, 0x18, 0x13, 0x0c, 0x10, 0x0d, 0x07, 0x02, 0x0a, 0x1b, 0x1e,
  0x1c, 0x17, 0x09, 0x06, 0x0f, 0x13, 0x16, 0x11, 0x15, 0x1e, 0x20, 0x16,
  0x1a, 0x1d, 0x22, 0x17, 0x19, 0x11, 0x14, 0x23, 0x28, 0x10, 0x22, 0x1c,
  0x1a, 0x23, 0x1b, 0x19, 0x1d, 0x1e, 0x27, 0x1e, 0x1a, 0x1b, 0x20, 0x1f,
  0x19, 0x0d, 0x19, 0x1c, 0x29, 0x2c, 0x1c, 0x1d, 0x16, 0x25, 0x1d, 0x24,
  0x26, 0x27, 0x26, 0x23, 0x18, 0x19, 0x1c, 0x22, 0x1f, 0x26, 0x24, 0x37,
  0x48, 0x34, 0x2d, 0x2d, 0x32, 0x2d, 0x21, 0x15, 0x1a, 0x1c, 0x29, 0x29,
  0x20, 0x2a, 0x21, 0x13, 0x18, 0x1f, 0x32, 0x39, 0x50, 0x44, 0x30, 0x21,
  0x18, 0x19, 0x1f, 0x1b, 0x26, 0x21, 0x12, 0x15, 0x1d, 0x28, 0x27, 0x28,
  0x21, 0x3b, 0x38, 0x28, 0x3a, 0x40, 0x3d, 0x25, 0x2a, 0x27, 0x2d, 0x20,
  0x22, 0x13, 0x1e, 0x24, 0x1e, 0x1d, 0x1f, 0x23, 0x28, 0x30, 0x45, 0x52,
  0x3b, 0x3a, 0x2e, 0x3b, 0x38, 0x2c, 0x2b, 0x21, 0x2d, 0x28, 0x27, 0x2a,
  0x26, 0x2d, 0x2e, 0x24, 0x29, 0x3b, 0x40, 0x32, 0x2c, 0x2c, 0x35, 0x35,
  0x26, 0x2c, 0x29, 0x2a, 0x2c, 0x2d, 0x2f, 0x2c, 0x2a, 0x2b, 0x38, 0x3f,
  0x39, 0x3a, 0x3b, 0x38, 0x2b, 0x38, 0x32, 0x2f, 0x2c, 0x2c, 0x2b, 0x2f,
  0x27, 0x29, 0x26, 0x20, 0x2e, 0x2c, 0x2f, 0x2e, 0x2b, 0x25, 0x2e, 0x28,
  0x1f, 0x36, 0x2f, 0x26, 0x29, 0x2c, 0x28, 0x28, 0x2c, 0x25, 0x25, 0x27,
  0x2a, 0x23, 0x2c, 0x26, 0x37, 0x38, 0x2f, 0x24, 0x2a, 0x1f, 0x3a, 0x31,
  0x27, 0x31, 0x2c, 0x2f, 0x29, 0x27, 0x27, 0x23, 0x24, 0x28, 0x2d, 0x25,
  0x1f, 0x18, 0x21, 0x17, 0x0d, 0x14, 0x22, 0x29, 0x21, 0x2f, 0x29, 0x28,
  0x2b, 0x32, 0x3b, 0x2d, 0x29, 0x1f, 0x27, 0x23, 0x31, 0x33, 0x1e, 0x38,
  0x49, 0x2a, 0x2d, 0x41, 0x40, 0x3f, 0x3a, 0x2d, 0x2f, 0x22, 0x1a, 0x20,
  0x27, 0x44, 0x47, 0x47, 0x4f, 0x3a, 0x58, 0x4f, 0x44, 0x26, 0x29, 0x28,
  0x19, 0x09, 0x14, 0x22, 0x23, 0x27, 0x43, 0x3d, 0x37, 0x39, 0x3f, 0x3b,
  0x31, 0x36, 0x2d, 0x1f, 0x25, 0x29, 0x26, 0x35, 0x05, 0xff, 0x0f, 0x11,
  0x0d, 0x0a, 0x04, 0x17, 0x11, 0x2a, 0x3d, 0x46, 0x50, 0x54, 0x2b, 0x39,
  0x1c, 0x13, 0x0a, 0x02, 0x16, 0x2c, 0x09, 0x21, 0x25, 0x27, 0x1e, 0x34,
  0x25, 0x23, 0x29, 0x2f, 0x22, 0x2c, 0x25, 0x24, 0x24, 0x2f, 0x2e, 0x2e,
  0x2c, 0x21, 0x10, 0x22, 0x29, 0x48, 0x49, 0x37, 0x46, 0x1c, 0x13, 0x3d,
  0x44, 0x46, 0x43, 0x3c, 0x3c, 0x48, 0x3d, 0x49, 0x40, 0x2f, 0x22, 0x29,
  0x1d, 0x29, 0x29, 0x29, 0x29, 0x29, 0x29, 0x24, 0x0f, 0x0c, 0x0d, 0x20,
  0x28, 0x30, 0x2a, 0x1c, 0x29, 0x43, 0x57, 0x3d, 0x16, 0x15, 0x12, 0x1f,
  0x12, 0x14, 0x29, 0x29, 0x28, 0x24, 0x18, 0x0b, 0x04, 0x16, 0x17, 0x0a,
  0x06, 0x1c, 0x4c, 0x49, 0x2f, 0x35, 0x5b, 0x2e, 0x30, 0x37, 0x3b, 0x4b,
  0x2f, 0x3d, 0x56, 0x29, 0x29, 0x29, 0x10, 0x1f, 0x22, 0x26, 0x2c, 0x1e,
  0x24, 0x20, 0x25, 0x22, 0x1b, 0x22, 0x27, 0x21, 0x1a, 0x24, 0x1e, 0x22,
  0x4f, 0x0e, 0x18, 0x29, 0x29, 0x29, 0x29, 0x29, 0x29, 0x2d, 0x35, 0x3a,
  0x35, 0x3b, 0x3e, 0x3b, 0x35, 0x24, 0x23, 0x22, 0x27, 0x31, 0x24, 0x3a,
  0x29, 0x29, 0x29, 0x29, 0x29, 0x29, 0x29, 0x29, 0x29, 0x29, 0x29, 0x29,
  0x29, 0x29, 0x29, 0x29, 0x29, 0x2b, 0x2c, 0x2c, 0x2b, 0x29, 0x29, 0x29,
  0x29, 0x29, 0x29, 0x29, 0x29, 0x29, 0x29, 0x29, 0x29, 0x29, 0x29, 0x29,
  0x29, 0x29, 0x29, 0x3e, 0x29, 0x18, 0x15, 0x17, 0x31, 0x31, 0x1d, 0x2c,
  0x12, 0x49, 0x2c, 0x1e, 0x4b, 0x2c, 0xff, 0x50, 0x2e, 0x29, 0x50, 0x28,
  0x29, 0x36, 0x58, 0x6d, 0x37, 0x48, 0x37, 0x40, 0x31, 0x22, 0x4c, 0x40,
  0x2a, 0x29, 0x4e, 0x57, 0x2a, 0x29, 0x45, 0x29, 0x29, 0x29, 0x29, 0x29,
  0x29, 0x29, 0x29, 0x29, 0x29, 0x29, 0x21, 0x36, 0x28, 0x30, 0x1a, 0x3c,
  0x33, 0x1d, 0x16, 0x43, 0x35, 0x2d, 0x2d, 0x3f, 0x42, 0x3f, 0x3b, 0x34,
  0x2b, 0x29, 0x29, 0x29, 0x29, 0x29, 0x29, 0x29, 0x29, 0x29, 0x29, 0x29,
  0x29, 0x16, 0x29, 0x33, 0x2f, 0x29, 0x29, 0x29, 0x2b, 0x29, 0x29, 0x28,
  0x29, 0x29, 0x29, 0x29, 0x29, 0x29, 0x29, 0x29, 0x2b, 0x37, 0x23, 0x1a,
  0x11, 0x2c, 0x4d, 0x42, 0x15, 0x36, 0x3c, 0x41, 0x22, 0x2e, 0x29, 0x1a,
  0x19, 0x1b, 0x2e, 0x44, 0x25, 0x1b, 0x1c, 0x16, 0x20, 0x25, 0x1b, 0x28,
  0x24, 0x28, 0x27, 0x22, 0x2b, 0x2a, 0x26, 0x28, 0x2d, 0x1f, 0x0a, 0x05,
  0x11, 0x03, 0x1e, 0x27, 0x2a, 0x2c, 0x21, 0x33, 0x2d, 0x2b, 0x27, 0x24,
  0x21, 0x1a, 0x16, 0x1b, 0x1b, 0x1a, 0x12, 0xff, 0x0f, 0x25, 0x26, 0x22,
  0x2e, 0x24, 0x33, 0x37, 0x2e, 0x2c, 0x30, 0x31, 0x2d, 0x2f, 0x27, 0x34,
  0x2f, 0x2b, 0x26, 0x21, 0x37, 0x2f, 0x33, 0x3d, 0x2f, 0x2e, 0x32, 0x35,
  0x32, 0x31, 0x2b, 0x38, 0x39, 0x34, 0x2c, 0x26, 0x23, 0x22, 0x2b, 0x27,
  0x31, 0x25, 0x26, 0x2f, 0x2b, 0x30, 0x31, 0x3b, 0x35, 0x2e, 0x30, 0x30,
  0x2f, 0x2b, 0x33, 0x2e, 0x2f, 0x3b, 0x32, 0x2b, 0x3d, 0x31, 0x38, 0x2a,
  0x2e, 0x29, 0x28, 0x2d, 0x2e, 0x29, 0x37, 0x2b, 0x30, 0x30, 0x31, 0x30,
  0x30, 0x30, 0x29, 0x2f, 0x32, 0x38, 0x3a, 0x33, 0x39, 0x2e, 0x2c, 0x2f,
  0x1c, 0x2b, 0x2e, 0x22, 0x24, 0x28, 0x28, 0x29, 0x21, 0x34, 0x4a, 0x4a,
  0x30, 0x31, 0x29, 0x2d, 0x2c, 0x2e, 0x2e, 0x23, 0x19, 0x30, 0x24, 0x1c,
  0x20, 0x2e, 0x38, 0x32, 0x3c, 0x40, 0x3f, 0x26, 0x44, 0x40, 0x37, 0x34,
  0x30, 0x2c, 0x2d, 0x23, 0x18, 0x10, 0x07, 0x0f, 0x1a, 0x20, 0x1f, 0x26,
  0x24, 0x24, 0x2c, 0x37, 0x36, 0x2a, 0x26, 0x15, 0x18, 0x1d, 0x23, 0x16,
  0x0e, 0x11, 0x10, 0x1d, 0x21, 0x1b, 0x20, 0x2b, 0x2a, 0x2d, 0x3f, 0x31,
  0x3d, 0x27, 0x23, 0x29, 0x2f, 0x24, 0x1b, 0x1e, 0x19, 0x1b, 0x15, 0x13,
  0x19, 0x1b, 0x1a, 0x23, 0x22, 0x2b, 0x20, 0x17, 0x19, 0x29, 0x28, 0x24,
  0x24, 0x18, 0x24, 0x18, 0x14, 0x16, 0x10, 0x15, 0x1c, 0x29, 0x3a, 0x30,
  0x2b, 0x30, 0x26, 0x2f, 0x28, 0x1f, 0x26, 0x27, 0x2b, 0x2f, 0x2f, 0x2d,
  0x22, 0x15, 0x17, 0x1e, 0x1e, 0x23, 0x1b, 0x23, 0x2d, 0x2b, 0x32, 0x36,
  0x35, 0x30, 0x2c, 0x25, 0x29, 0x2c, 0x2d, 0x2f, 0x27, 0x20, 0x19, 0x25,
  0x28, 0x2d, 0x28, 0x27, 0x31, 0x1e, 0x24, 0x38, 0x17, 0x28, 0x19, 0x1f,
  0x1e, 0x22, 0x25, 0x28, 0x1d, 0x1a, 0x1b, 0x28, 0x2c, 0x33, 0x24, 0x2a,
  0x24, 0x26, 0x2b, 0x2d, 0x26, 0x27, 0x25, 0x24, 0x29, 0x28, 0x28, 0x26,
  0x2d, 0x1a, 0x1b, 0x1b, 0x1e, 0x1f, 0x1e, 0x22, 0x15, 0x18, 0x1d, 0x20,
  0x22, 0x21, 0x1e, 0x1c, 0x1c, 0x0b, 0x11, 0x0a, 0x19, 0x21, 0x24, 0x25,
  0x1f, 0x23, 0x20, 0x27, 0x26, 0x1b, 0x28, 0x16, 0x0d, 0x0a, 0x18, 0x24,
  0x1d, 0x22, 0x1e, 0x2c, 0x2b, 0x28, 0x22, 0x24, 0x1b, 0x1a, 0x0c, 0x10,
  0x14, 0x1c, 0x19, 0x23, 0x10, 0x12, 0x17, 0x15, 0x13, 0x13, 0x1d, 0x2b,
  0x23, 0x29, 0x29, 0x30, 0x27, 0x2c, 0x24, 0x29, 0x21, 0x1d, 0x21, 0x10,
  0x23, 0x2f, 0x13, 0x2b, 0x2c, 0x20, 0x23, 0x1f, 0x2a, 0x26, 0x28, 0x2a,
  0x29, 0x21, 0x19, 0x1b, 0x18, 0x30, 0x2e, 0x2b, 0x2b, 0x1d, 0x1f, 0x22,
  0x25, 0x19, 0x27, 0x2a, 0x29, 0x25, 0x26, 0x2b, 0x29, 0x27, 0x25, 0x3b,
  0x2d, 0x25, 0x37, 0x1e, 0x0c, 0x15, 0x09, 0xf8, 0x14, 0x15, 0x12, 0x10,
  0x23, 0x20, 0x15, 0x36, 0x38, 0x31, 0x49, 0x36, 0x39, 0x47, 0x13, 0x0d,
  0x0d, 0x2d, 0x29, 0x29, 0x2d, 0x46, 0x4c, 0x54, 0x49, 0x4c, 0x3b, 0x3e,
  0x4f, 0x32, 0x23, 0x16, 0x21, 0x39, 0x17, 0x27, 0x1e, 0x20, 0x37, 0x1c,
  0x36, 0x34, 0x19, 0x17, 0x21, 0x37, 0x38, 0x22, 0x32, 0x3c, 0x44, 0x32,
  0x26, 0x0e, 0x37, 0x23, 0x27, 0x30, 0x29, 0x38, 0x30, 0x21, 0x20, 0x10,
  0x2d, 0x35, 0x3a, 0x36, 0x31, 0x37, 0x2c, 0x24, 0x39, 0x2f, 0x2f, 0x35,
  0x3b, 0x30, 0x2d, 0x36, 0x2a, 0x3a, 0x54, 0x46, 0x29, 0x07, 0x05, 0x2e,
  0x23, 0x36, 0x4f, 0x30, 0x35, 0x36, 0x0e, 0x2f, 0x45, 0x2c, 0x29, 0x37,
  0x29, 0x3c, 0x3b, 0x29, 0x12, 0x29, 0x29, 0x29, 0x29, 0x29, 0x29, 0x2f,
  0x45, 0x47, 0x42, 0x3f, 0x33, 0x3c, 0x38, 0x36, 0x3c, 0x47, 0x52, 0x3e,
  0x32, 0x3d, 0x40, 0x31, 0x3e, 0x3e, 0x29, 0x29, 0x28, 0x25, 0x1b, 0x22,
  0x24, 0x1e, 0x1a, 0x20, 0x12, 0xfc, 0x1b, 0x34, 0x28, 0x27, 0x4b, 0x38,
  0x34, 0x27, 0xf5, 0xff, 0x1e, 0x21, 0x05, 0x29, 0x29, 0x29, 0x31, 0x4b,
  0x54, 0x3d, 0x47, 0x3d, 0x3d, 0x41, 0x38, 0x41, 0x3e, 0x33, 0x3a, 0x4b,
  0x4b, 0x40, 0x3e, 0x2e, 0x1e, 0x2b, 0x31, 0x29, 0x29, 0x29, 0x29, 0x29,
  0x29, 0x2b, 0x39, 0x3a, 0x18, 0x0d, 0x13, 0x14, 0x14, 0x35, 0x3a, 0x33,
  0x43, 0x4b, 0x48, 0x3a, 0x29, 0x29, 0x29, 0x29, 0x29, 0x29, 0x29, 0x29,
  0x29, 0x29, 0x29, 0x29, 0x29, 0x29, 0x29, 0x29, 0x29, 0x2d, 0x2e, 0x2b,
  0x2b, 0x29, 0x29, 0x29, 0x29, 0x29, 0x29, 0x29, 0x29, 0x29, 0x29, 0x29,
  0x29, 0x29, 0x29, 0x29, 0x29, 0x29, 0x29, 0x11, 0x29, 0x3b, 0x34, 0x1d,
  0x21, 0x1c, 0x24, 0x23, 0x40, 0x4d, 0x3a, 0x57, 0x41, 0x23, 0x37, 0x3a,
  0x30, 0x29, 0x3d, 0x1c, 0x29, 0x1a, 0x3b, 0x5e, 0x19, 0x19, 0x50, 0x4b,
  0x13, 0x14, 0x3d, 0x2b, 0x24, 0x2a, 0x0d, 0x05, 0x2a, 0x29, 0x0c, 0x29,
  0x29, 0x29, 0x29, 0x29, 0x29, 0x29, 0x29, 0x29, 0x29, 0x29, 0x3c, 0x4f,
  0x49, 0x4b, 0x4c, 0x4b, 0x3f, 0x33, 0x3c, 0x49, 0x41, 0x38, 0x36, 0x3a,
  0x3f, 0x3d, 0x39, 0x33, 0x2a, 0x29, 0x29, 0x29, 0x29, 0x29, 0x29, 0x29,
  0x29, 0x29, 0x29, 0x29, 0x29, 0x34, 0x29, 0x39, 0x35, 0x29, 0x29, 0x29,
  0x2a, 0x2a, 0x2a, 0x2b, 0x2a, 0x29, 0x29, 0x29, 0x29, 0x29, 0x29, 0x29,
  0x0f, 0x29, 0x2a, 0x2f, 0x2f, 0x3c, 0x2f, 0x30, 0x24, 0x2f, 0x30, 0x32,
  0x34, 0x2d, 0x25, 0x2b, 0x20, 0x27, 0x2c, 0x29, 0x32, 0x27, 0x28, 0x2d,
  0x2f, 0x2e, 0x2c, 0x33, 0x27, 0x30, 0x30, 0x33, 0x2d, 0x2c, 0x3e, 0x1e,
  0x39, 0x2f, 0x23, 0x0f, 0x30, 0x34, 0x31, 0x26, 0x2f, 0x2e, 0x2c, 0x26,
  0x2c, 0x28, 0x2e, 0x29, 0x33, 0x2d, 0x29, 0x2f, 0x30, 0x2a, 0x29, 0x20,
  0x23, 0x26, 0x26, 0x20, 0x23, 0x23, 0x22, 0x29, 0x27, 0x27, 0x24, 0x2b,
  0x27, 0x2b, 0x1b, 0x30, 0x36, 0x26, 0x2d, 0x2b, 0x39, 0x3a, 0x30, 0x2d,
  0x2a, 0x2a, 0x25, 0x2a, 0x1f, 0x2b, 0x25, 0x24, 0x23, 0x1e, 0x2a, 0x26,
  0x1c, 0x2a, 0x28, 0x1d, 0x3a, 0x2a, 0x26, 0x26, 0x25, 0x21, 0x25, 0x27,
  0x25, 0x1f, 0x25, 0x24, 0x2a, 0x26, 0x2e, 0x24, 0x37, 0x31, 0x37, 0x33,
  0x27, 0x3c, 0x31, 0x23, 0x24, 0x2e, 0x27, 0x25, 0x20, 0x21, 0x1d, 0x1d,
  0x27, 0x27, 0x23, 0x2e, 0x23, 0x2c, 0x25, 0x38, 0x34, 0x2d, 0x2d, 0x2d,
  0x2a, 0x25, 0x2b, 0x20, 0x1a, 0x18, 0x20, 0x25, 0x1f, 0x26, 0x26, 0x28,
  0x28, 0x2d, 0x20, 0x37, 0x36, 0x2e, 0x28, 0x21, 0x19, 0x1b, 0x1e, 0x1d,
  0x1f, 0x14, 0x11, 0x13, 0x16, 0x1b, 0x1b, 0x25, 0x26, 0x23, 0x2c, 0x27,
  0x1f, 0x2a, 0x2a, 0x20, 0x26, 0x1b, 0x17, 0x1b, 0x15, 0x0e, 0x12, 0x18,
  0x1b, 0x1a, 0x19, 0x17, 0x0d, 0x12, 0x23, 0x15, 0x12, 0x10, 0x14, 0x17,
  0x20, 0x1d, 0x20, 0x20, 0x1e, 0x1a, 0x16, 0x1e, 0x1b, 0x1c, 0x21, 0x23,
  0x27, 0x24, 0x31, 0x33, 0x26, 0x23, 0x24, 0x21, 0x27, 0x23, 0x23, 0x1f,
  0x1c, 0x19, 0x25, 0x26, 0x29, 0x20, 0x1d, 0x1e, 0x2a, 0x19, 0x13, 0x1c,
  0x1f, 0x32, 0x30, 0x22, 0x21, 0x2a, 0x24, 0x25, 0x25, 0x25, 0x20, 0x1f,
  0x1d, 0x22, 0x20, 0x28, 0x17, 0x20, 0x20, 0x26, 0x3c, 0x24, 0x26, 0x2a,
  0x2c, 0x2a, 0x2c, 0x25, 0x22, 0x21, 0x28, 0x27, 0x25, 0x2c, 0x21, 0x26,
  0x28, 0x27, 0x35, 0x1e, 0x2a, 0x2c, 0x32, 0x2b, 0x26, 0x2b, 0x2d, 0x2a,
  0x2e, 0x2b, 0x22, 0x20, 0x26, 0x2b, 0x24, 0x21, 0x23, 0x33, 0x2f, 0x24,
  0x2e, 0x35, 0x28, 0x25, 0x22, 0x25, 0x28, 0x23, 0x21, 0x1e, 0x29, 0x32,
  0x29, 0x2a, 0x2c, 0x28, 0x2a, 0x30, 0x38, 0x35, 0x38, 0x38, 0x2b, 0x33,
  0x2a, 0x2b, 0x2b, 0x29, 0x32, 0x24, 0x22, 0x27, 0x20, 0x24, 0x27, 0x21,
  0x1c, 0x35, 0x37, 0x2b, 0x29, 0x21, 0x2e, 0x2a, 0x23, 0x1f, 0x23, 0x1f,
  0x2a, 0x24, 0x28, 0x2c, 0x24, 0x1f, 0x29, 0x29, 0x2e, 0x24, 0x2e, 0x2d,
  0x13, 0x1e, 0x21, 0x28, 0x1f, 0x2e, 0x20, 0x2c, 0x26, 0x29, 0x21, 0x22,
  0x23, 0x27, 0x1d, 0x26, 0x2a, 0x2f, 0x28, 0x27, 0x21, 0x32, 0x2c, 0x21,
  0x28, 0x2a, 0x23, 0x28, 0x24, 0x22, 0x29, 0x2a, 0x2b, 0x26, 0x27, 0x22,
  0x2a, 0x29, 0x20, 0x1b, 0x22, 0x21, 0x24, 0x1e, 0x2c, 0x22, 0x21, 0x27,
  0x29, 0x20, 0x23, 0x22, 0x25, 0x1f, 0x23, 0x1e, 0x2a, 0x29, 0x29, 0x2c,
  0x16, 0x1b, 0x2a, 0x32, 0x28, 0x31, 0x2a, 0x2e, 0x27, 0x2c, 0x30, 0x2e,
  0x28, 0x1e, 0x22, 0x23, 0x22, 0x26, 0x15, 0x15, 0x07, 0x08, 0x22, 0x20,
  0x22, 0x20, 0x1d, 0x18, 0x25, 0x30, 0x1a, 0x1e, 0x24, 0x32, 0x1b, 0x1d,
  0x2e, 0x19, 0x21, 0x20, 0x0d, 0x24, 0x29, 0x27, 0x17, 0x08, 0x0c, 0x19,
  0x21, 0x15, 0x32, 0x2e, 0x31, 0x27, 0x2b, 0x2b, 0x23, 0x28, 0x16, 0x19,
  0x25, 0x29, 0x19, 0x31, 0x0e, 0x2a, 0x19, 0x25, 0x28, 0x34, 0x26, 0x25,
  0x2e, 0x3f, 0x3f, 0x35, 0x35, 0x34, 0x2c, 0x3c, 0x1c, 0x1a, 0x11, 0x0d,
  0x10, 0x30, 0x08, 0x21, 0x19, 0x25, 0x12, 0x1f, 0x20, 0x29, 0x21, 0x2a,
  0x24, 0x20, 0x17, 0x1e, 0x20, 0x19, 0x11, 0x11, 0x14, 0x09, 0x0d, 0x36,
  0x29, 0x29, 0x22, 0x35, 0x2b, 0x2d, 0x1b, 0x22, 0x38, 0x35, 0x3b, 0x34,
  0x3d, 0x41, 0x1c, 0x24, 0x19, 0x3d, 0x35, 0x13, 0x12, 0x29, 0x29, 0x29,
  0x29, 0x29, 0x29, 0x22, 0x0d, 0x0b, 0x0c, 0x1c, 0x26, 0x2c, 0x23, 0x16,
  0x1d, 0x30, 0x46, 0x2a, 0x15, 0x12, 0x11, 0x1b, 0x12, 0x13, 0x29, 0x29,
  0x28, 0x17, 0x26, 0x2b, 0x2f, 0x2e, 0x37, 0x28, 0xf1, 0x1a, 0x4b, 0x4d,
  0x2f, 0x34, 0x48, 0x28, 0x2d, 0x2d, 0x2d, 0x27, 0x1f, 0x37, 0x56, 0x29,
  0x29, 0x29, 0x11, 0x1a, 0x16, 0x0e, 0x1c, 0x19, 0x1f, 0x17, 0x17, 0x1a,
  0x20, 0x1e, 0x23, 0x1b, 0x18, 0x21, 0x11, 0x13, 0x35, 0x0f, 0x18, 0x29,
  0x29, 0x29, 0x29, 0x29, 0x29, 0x2f, 0x39, 0x3e, 0x1b, 0x0d, 0x15, 0x16,
  0x20, 0x33, 0x29, 0x2e, 0x35, 0x41, 0x3b, 0x2d, 0x29, 0x29, 0x29, 0x29,
  0x29, 0x29, 0x29, 0x29, 0x29, 0x29, 0x29, 0x29, 0x29, 0x29, 0x29, 0x29,
  0x29, 0x23, 0x24, 0x2c, 0x2b, 0x29, 0x29, 0x29, 0x29, 0x29, 0x29, 0x29,
  0x29, 0x29, 0x29, 0x29, 0x29, 0x29, 0x29, 0x29, 0x29, 0x29, 0x29, 0x3e,
  0x29, 0x30, 0x2f, 0x04, 0x18, 0x11, 0x27, 0x3c, 0x30, 0x07, 0x2f, 0x27,
  0x09, 0x29, 0x2c, 0x45, 0x32, 0x29, 0x47, 0x25, 0x29, 0x37, 0x42, 0x65,
  0x37, 0x48, 0x33, 0x3e, 0x1d, 0x13, 0x4d, 0x40, 0x24, 0x28, 0x4e, 0x51,
  0x28, 0x29, 0x42, 0x29, 0x29, 0x29, 0x29, 0x29, 0x29, 0x29, 0x29, 0x29,
  0x29, 0x29, 0x1d, 0x32, 0x27, 0x2e, 0x1a, 0x37, 0x33, 0x1d, 0x14, 0x42,
  0x36, 0x2c, 0x2c, 0x3d, 0x40, 0x3e, 0x3a, 0x33, 0x2b, 0x29, 0x29, 0x29,
  0x29, 0x29, 0x29, 0x29, 0x29, 0x29, 0x29, 0x29, 0x29, 0x16, 0x29, 0x33,
  0x2f, 0x29, 0x29, 0x29, 0x2b, 0x29, 0x2a, 0x2a, 0x2a, 0x29, 0x29, 0x29,
  0x29, 0x29, 0x29, 0x29, 0x0f, 0x15, 0x2b, 0x2b, 0x33, 0x20, 0x14, 0x12,
  0x3a, 0x27, 0x28, 0x21, 0x2f, 0x2f, 0x37, 0x3a, 0x3b, 0x33, 0x2b, 0x23,
  0x18, 0x24, 0x2f, 0x2a, 0x2e, 0x2c, 0x29, 0x27, 0x2c, 0x21, 0x1d, 0x2c,
  0x2d, 0x21, 0x20, 0x2a, 0x16, 0x2a, 0x26, 0x40, 0x0e, 0x2a, 0x1f, 0x31,
  0x23, 0x23, 0x2e, 0x23, 0x1d, 0x25, 0x1b, 0x18, 0x22, 0x24, 0x25, 0x19,
  0x1f, 0x24, 0x2b, 0x2f, 0x2d, 0x27, 0x23, 0x2f, 0x22, 0x22, 0x20, 0x19,
  0x18, 0x1f, 0x26, 0x25, 0x22, 0x28, 0x2e, 0x24, 0x28, 0x27, 0x32, 0x2b,
  0x1d, 0x31, 0x29, 0x2d, 0x30, 0x2d, 0x25, 0x23, 0x2d, 0x1e, 0x22, 0x1c,
  0x1f, 0x22, 0x22, 0x28, 0x2b, 0x23, 0x29, 0x32, 0x27, 0x2b, 0x2d, 0x35,
  0x2f, 0x2a, 0x23, 0x1f, 0x1f, 0x20, 0x21, 0x2a, 0x2b, 0x28, 0x30, 0x33,
  0x2f, 0x22, 0x1e, 0x24, 0x27, 0x1c, 0x1f, 0x2d, 0x2e, 0x22, 0x1c, 0x24,
  0x22, 0x1d, 0x22, 0x23, 0x20, 0x27, 0x1d, 0x1c, 0x28, 0x29, 0x2d, 0x29,
  0x2a, 0x28, 0x22, 0x23, 0x1e, 0x27, 0x22, 0x2c, 0x33, 0x37, 0x31, 0x1f,
  0x22, 0x27, 0x20, 0x1c, 0x2b, 0x22, 0x1b, 0x17, 0x26, 0x13, 0x1e, 0x1e,
  0x29, 0x29, 0x27, 0x22, 0x2a, 0x2f, 0x37, 0x3a, 0x39, 0x2f, 0x2e, 0x20,
  0x13, 0x10, 0x18, 0x21, 0xfd, 0x09, 0x04, 0x23, 0x22, 0x2a, 0x2f, 0x35,
  0x3e, 0x3a, 0x33, 0x2b, 0x2a, 0x28, 0x2a, 0x22, 0x2d, 0x27, 0x1d, 0x35,
  0x46, 0x38, 0x27, 0x1f, 0x20, 0x20, 0x20, 0x28, 0x27, 0x2a, 0x40, 0x36,
  0x2c, 0x26, 0x28, 0x25, 0x22, 0x18, 0x04, 0xfd, 0x1f, 0x1c, 0x29, 0x22,
  0x1f, 0x30, 0x2a, 0x30, 0x37, 0x37, 0x24, 0x19, 0x19, 0x24, 0x2c, 0x21,
  0x0b, 0x11, 0x29, 0x3f, 0x34, 0x12, 0x19, 0x0e, 0x12, 0x21, 0x17, 0x1d,
  0x23, 0x2e, 0x3d, 0x34, 0x29, 0x25, 0x25, 0x27, 0x30, 0x30, 0x25, 0x2e,
  0x1d, 0x27, 0x29, 0x2e, 0x23, 0x25, 0x23, 0x1b, 0x2c, 0x2c, 0x39, 0x2c,
  0x0f, 0x11, 0x16, 0x0b, 0x10, 0x1a, 0x13, 0x34, 0x3c, 0x29, 0x24, 0x1b,
  0x15, 0x04, 0xfd, 0x06, 0x13, 0x20, 0x24, 0x2d, 0x2d, 0x26, 0x29, 0x29,
  0x27, 0x2a, 0x1b, 0x26, 0x2c, 0x20, 0x2c, 0x26, 0x2a, 0x25, 0x27, 0x2a,
  0x38, 0x31, 0x2d, 0x14, 0x14, 0x05, 0x0e, 0x14, 0x1a, 0x2a, 0x23, 0x35,
  0x25, 0x20, 0x26, 0x1c, 0x23, 0x1c, 0x15, 0x17, 0x13, 0x25, 0x23, 0x28,
  0x22, 0x28, 0x26, 0x23, 0x23, 0x20, 0x23, 0x2b, 0x36, 0x2f, 0x1d, 0x22,
  0x27, 0x2c, 0x29, 0x26, 0x1f, 0x23, 0x20, 0x17, 0x17, 0x18, 0x2c, 0x26,
  0x23, 0x2b, 0x28, 0x2d, 0x36, 0x2a, 0x29, 0x21, 0x2a, 0x1f, 0x21, 0x1f,
  0x19, 0x1e, 0x23, 0x19, 0x24, 0x29, 0x2a, 0x30, 0x2a, 0x26, 0x2c, 0x38,
  0x37, 0x29, 0x26, 0x28, 0x28, 0x28, 0x28, 0x2b, 0x20, 0x23, 0x18, 0x1d,
  0x26, 0x17, 0x1c, 0x1f, 0x31, 0x20, 0x21, 0x34, 0x54, 0x2b, 0x35, 0x28,
  0x23, 0x26, 0x25, 0x22, 0x20, 0x24, 0x28, 0x24, 0x25, 0x24, 0x2a, 0x23,
  0x23, 0x20, 0x0e, 0x08, 0x04, 0x1c, 0x31, 0x30, 0x1c, 0x1e, 0x2b, 0x2a,
  0x2b, 0x36, 0x32, 0x21, 0x2e, 0x33, 0x31, 0x2c, 0x37, 0x4a, 0x3e, 0x4f,
  0x56, 0x31, 0x1a, 0x2a, 0x38, 0x3a, 0x3d, 0x46, 0x3d, 0x28, 0x2d, 0x1d,
  0x2d, 0x4c, 0x4c, 0x46, 0x32, 0x42, 0x3a, 0x36, 0x44, 0x22, 0x29, 0x29,
  0x23, 0x0a, 0x00, 0x00, 0x07, 0xed, 0xf0, 0xf8, 0xe5, 0x06, 0x21, 0x35,
  0x2f, 0x24, 0x22, 0x12, 0x20, 0x26, 0x07, 0x13, 0x2c, 0x3d, 0x30, 0x33,
  0x3e, 0x34, 0x32, 0x32, 0x27, 0xf3, 0xfa, 0x24, 0x34, 0x30, 0x2c, 0x21,
  0x33, 0x24, 0x24, 0x2c, 0x41, 0x18, 0x34, 0x28, 0x40, 0x32, 0x37, 0x50,
  0x3a, 0x39, 0x48, 0x42, 0x31, 0x41, 0x47, 0x3c, 0x41, 0x54, 0x56, 0x56,
  0x4d, 0x40, 0x29, 0x3c, 0x29, 0x4b, 0x4d, 0x20, 0x29, 0x2c, 0x47, 0x2d,
  0x1a, 0x1e, 0x28, 0x3d, 0x40, 0x44, 0x47, 0x33, 0x46, 0x24, 0x20, 0x3c,
  0x36, 0x29, 0x29, 0x29, 0x29, 0x29, 0x29, 0x23, 0x0c, 0x0b, 0x11, 0x16,
  0x21, 0x15, 0x0f, 0x13, 0x15, 0xf8, 0xf4, 0xfc, 0x19, 0x10, 0x0d, 0x17,
  0x12, 0x13, 0x29, 0x29, 0x28, 0x19, 0x54, 0x3f, 0x39, 0x4e, 0x40, 0x48,
  0x6f, 0x77, 0x47, 0x04, 0x0b, 0x09, 0xf0, 0x14, 0x13, 0x1b, 0x13, 0x05,
  0x03, 0x05, 0x1c, 0x29, 0x29, 0x29, 0x1d, 0x31, 0x36, 0x45, 0x49, 0x35,
  0x35, 0x4d, 0x53, 0x3c, 0x32, 0x37, 0x39, 0x3a, 0x30, 0x2c, 0x26, 0x2b,
  0x56, 0x0f, 0x18, 0x29, 0x29, 0x29, 0x29, 0x29, 0x29, 0x24, 0x2a, 0x3a,
  0x39, 0x43, 0x3f, 0x3c, 0x38, 0x2b, 0x31, 0x27, 0x35, 0x3e, 0x2c, 0x3f,
  0x29, 0x29, 0x29, 0x29, 0x29, 0x29, 0x29, 0x29, 0x29, 0x29, 0x29, 0x29,
  0x29, 0x29, 0x29, 0x29, 0x29, 0x18, 0x18, 0x27, 0x27, 0x29, 0x29, 0x29,
  0x29, 0x29, 0x29, 0x29, 0x29, 0x29, 0x29, 0x29, 0x29, 0x29, 0x29, 0x29,
  0x29, 0x29, 0x29, 0x47, 0x29, 0x17, 0x13, 0x34, 0x08, 0x0c, 0x2d, 0x22,
  0x16, 0x4e, 0x4e, 0x53, 0x4d, 0x30, 0x72, 0x52, 0x28, 0x29, 0x30, 0x23,
  0x29, 0x32, 0x15, 0xe2, 0x34, 0x11, 0x21, 0x34, 0x22, 0x2b, 0x0c, 0x1a,
  0x2e, 0x26, 0x01, 0x09, 0x25, 0x29, 0x3c, 0x29, 0x29, 0x29, 0x29, 0x29,
  0x29, 0x29, 0x29, 0x29, 0x29, 0x29, 0x29, 0x3c, 0x2f, 0x38, 0x1f, 0x42,
  0x33, 0x26, 0x1d, 0x44, 0x33, 0x2f, 0x2f, 0x3a, 0x3c, 0x3e, 0x39, 0x33,
  0x2b, 0x29, 0x29, 0x29, 0x29, 0x29, 0x29, 0x29, 0x29, 0x29, 0x29, 0x29,
  0x29, 0x17, 0x29, 0x1a, 0x20, 0x29, 0x29, 0x29, 0x29, 0x29, 0x29, 0x29,
  0x29, 0x29, 0x29, 0x29, 0x29, 0x29, 0x29, 0x29, 0x3c, 0x2a, 0x2d, 0x37,
  0x46, 0x49, 0x57, 0x4f, 0x47, 0x59, 0x44, 0x3b, 0x40, 0x45, 0x45, 0x47,
  0x41, 0x30, 0x20, 0x26, 0x0b, 0x17, 0x20, 0x2d, 0x30, 0x2b, 0x2f, 0x34,
  0x3b, 0x2f, 0x25, 0x30, 0x34, 0x3a, 0x27, 0x2d, 0x20, 0x33, 0x4e, 0x46,
  0x43, 0x34, 0x29, 0x31, 0x24, 0x1e, 0x2f, 0x26, 0x27, 0x2c, 0x23, 0x25,
  0x26, 0x28, 0x2a, 0x2d, 0x2b, 0x28, 0x1d, 0x26, 0x1b, 0x13, 0x24, 0x2c,
  0x24, 0x2b, 0x23, 0x22, 0x2d, 0x2b, 0x2d, 0x20, 0x28, 0x25, 0x30, 0x21,
  0x22, 0x2b, 0x26, 0x32, 0x30, 0x1e, 0x25, 0x1b, 0x23, 0x20, 0x27, 0x20,
  0x2b, 0x29, 0x2c, 0x2d, 0x20, 0x19, 0x15, 0x17, 0x1d, 0x17, 0x1e, 0x16,
  0x0c, 0x23, 0x1e, 0x17, 0x15, 0x15, 0x1d, 0x1d, 0x22, 0x27, 0x23, 0x21,
  0x22, 0x2c, 0x1d, 0x1f, 0x18, 0x1d, 0x2f, 0x3c, 0x34, 0x32, 0x1c, 0x25,
  0x22, 0x24, 0x21, 0x1a, 0x1e, 0x1c, 0x28, 0x2f, 0x18, 0x13, 0x17, 0x14,
  0x27, 0x1e, 0x26, 0x1a, 0x1b, 0x1b, 0x10, 0x1e, 0x11, 0x18, 0x0f, 0x14,
  0x20, 0x2b, 0x1a, 0x17, 0x18, 0x11, 0x1d, 0x1c, 0x23, 0x19, 0x24, 0x0f,
  0x19, 0x1f, 0x19, 0x16, 0x14, 0x14, 0x0a, 0x12, 0x15, 0x1c, 0x2d, 0x16,
  0x1b, 0x14, 0x18, 0x16, 0x19, 0x12, 0x12, 0x32, 0x2c, 0x12, 0x0f, 0x19,
  0x15, 0x1d, 0x1b, 0x1c, 0x1a, 0x2d, 0x2c, 0x1f, 0x0e, 0x11, 0x0d, 0x02,
  0x07, 0x19, 0x20, 0x2c, 0x1a, 0x16, 0x09, 0x09, 0x0c, 0x16, 0x16, 0x17,
  0x27, 0x37, 0x38, 0x28, 0x23, 0x17, 0x23, 0x17, 0x16, 0x1b, 0x12, 0x2d,
  0x29, 0x1c, 0x21, 0x1e, 0x0b, 0x1a, 0x14, 0x1f, 0x35, 0x38, 0x31, 0x26,
  0x1b, 0x20, 0x22, 0x1e, 0x12, 0x17, 0x11, 0x17, 0x27, 0x1a, 0x16, 0x1f,
  0x18, 0x21, 0x25, 0x30, 0x33, 0x37, 0x39, 0x32, 0x25, 0x18, 0x1b, 0x1c,
  0x27, 0x26, 0x1e, 0x30, 0x2c, 0x32, 0x2c, 0x22, 0x25, 0x22, 0x14, 0x12,
  0x19, 0x2c, 0x3c, 0x35, 0x34, 0x28, 0x26, 0x06, 0x0f, 0x21, 0x27, 0x3a,
  0x36, 0x3b, 0x26, 0x1d, 0x17, 0x1a, 0x20, 0x27, 0x28, 0x27, 0x18, 0x15,
  0x19, 0x20, 0x28, 0x2a, 0x24, 0x29, 0x31, 0x28, 0x40, 0x3d, 0x33, 0x23,
  0x2a, 0x32, 0x33, 0x2c, 0x26, 0x24, 0x2b, 0x29, 0x27, 0x23, 0x21, 0x29,
  0x31, 0x31, 0x2d, 0x37, 0x33, 0x2b, 0x2f, 0x34, 0x3b, 0x3c, 0x32, 0x31,
  0x2e, 0x39, 0x35, 0x2a, 0x31, 0x36, 0x34, 0x30, 0x3c, 0x34, 0x44, 0x34,
  0x2c, 0x41, 0x3a, 0x41, 0x38, 0x3a, 0x2f, 0x39, 0x28, 0x34, 0x32, 0x28,
  0x32, 0x34, 0x40, 0x3f, 0x3c, 0x41, 0x3a, 0x3e, 0x3c, 0x39, 0x35, 0x36,
  0x39, 0x2a, 0x33, 0x2b, 0x33, 0x31, 0x30, 0x2a, 0x36, 0x37, 0x42, 0x3b,
  0x32, 0x21, 0x34, 0x2d, 0x22, 0x29, 0x29, 0x32, 0x2a, 0x2c, 0x2c, 0x26,
  0x2e, 0x2a, 0x25, 0x2a, 0x2a, 0x2c, 0x2c, 0x31, 0x36, 0x2c, 0x28, 0x3e,
  0x47, 0x2b, 0x30, 0x2a, 0x1b, 0x26, 0x25, 0x1f, 0x1c, 0x26, 0x2a, 0x27,
  0x1b, 0x24, 0x35, 0x35, 0x27, 0x23, 0x35, 0x30, 0x48, 0x40, 0x2d, 0x2e,
  0x32, 0x31, 0x29, 0x25, 0x28, 0x24, 0x29, 0x21, 0x25, 0x22, 0x24, 0x22,
  0x29, 0x27, 0x27, 0x40, 0x48, 0x5c, 0x47, 0x46, 0x46, 0x44, 0x41, 0x3c,
  0x3c, 0x23, 0x40, 0x3d, 0x1d, 0x19, 0x21, 0x30, 0x2d, 0x2a, 0x47, 0x45,
  0x45, 0x30, 0x29, 0x2a, 0x3a, 0x49, 0x49, 0x56, 0x54, 0x61, 0x51, 0x42,
  0x47, 0x4f, 0x47, 0x41, 0x4d, 0x40, 0x4e, 0x44, 0x2f, 0x2b, 0x48, 0x3d,
  0x3f, 0x03, 0x2e, 0x2b, 0x19, 0x05, 0x14, 0x23, 0x29, 0x1b, 0x31, 0x39,
  0x4b, 0x5b, 0x31, 0x2c, 0x2e, 0x1d, 0x26, 0x27, 0x48, 0x20, 0x3d, 0x23,
  0x2f, 0x21, 0x44, 0x43, 0x39, 0x2a, 0x42, 0x35, 0x2c, 0x2e, 0x2c, 0x26,
  0x29, 0x35, 0x3d, 0x38, 0x3a, 0x33, 0x12, 0x0a, 0x29, 0x4c, 0x4e, 0x22,
  0x2d, 0x1c, 0x19, 0x38, 0x26, 0x28, 0x19, 0x16, 0x05, 0x13, 0x2f, 0x1a,
  0x2a, 0x11, 0x13, 0x33, 0x37, 0x29, 0x29, 0x29, 0x29, 0x29, 0x29, 0x30,
  0x45, 0x48, 0x46, 0x3c, 0x2e, 0x2c, 0x38, 0x44, 0x3f, 0x33, 0x2a, 0x29,
  0x3d, 0x42, 0x43, 0x38, 0x40, 0x3e, 0x29, 0x29, 0x2a, 0x3d, 0x1a, 0x32,
  0x2f, 0x29, 0x16, 0x1d, 0x54, 0x54, 0x39, 0x2a, 0x23, 0x38, 0x69, 0x4c,
  0x46, 0x41, 0x2d, 0x22, 0x33, 0x44, 0x08, 0x29, 0x29, 0x29, 0x3c, 0x2b,
  0x2b, 0x43, 0x30, 0x2f, 0x28, 0x37, 0x39, 0x35, 0x2b, 0x38, 0x32, 0x32,
  0x2c, 0x25, 0x37, 0x3f, 0x2f, 0x3c, 0x35, 0x29, 0x29, 0x29, 0x29, 0x29,
  0x29, 0x26, 0x17, 0x15, 0x39, 0x44, 0x3f, 0x3b, 0x2b, 0x15, 0x18, 0x18,
  0x10, 0x07, 0x0e, 0x24, 0x29, 0x29, 0x29, 0x29, 0x29, 0x29, 0x29, 0x29,
  0x29, 0x29, 0x29, 0x29, 0x29, 0x29, 0x29, 0x29, 0x29, 0x38, 0x38, 0x27,
  0x28, 0x29, 0x29, 0x29, 0x29, 0x29, 0x29, 0x29, 0x29, 0x29, 0x29, 0x29,
  0x29, 0x29, 0x29, 0x29, 0x29, 0x29, 0x29, 0x12, 0x29, 0x1a, 0x2c, 0x51,
  0x3f, 0x45, 0x36, 0x18, 0x1b, 0x19, 0x12, 0x17, 0x1c, 0x2e, 0x16, 0x39,
  0x1f, 0x29, 0x39, 0x31, 0x29, 0x19, 0x42, 0x53, 0x18, 0x1e, 0x26, 0xff,
  0x29, 0x29, 0x11, 0x29, 0x2e, 0x26, 0x05, 0x10, 0x26, 0x29, 0x44, 0x29,
  0x29, 0x29, 0x29, 0x29, 0x29, 0x29, 0x29, 0x29, 0x29, 0x29, 0x2b, 0x11,
  0x1f, 0x1b, 0x2d, 0x14, 0x19, 0x2e, 0x35, 0x0a, 0x13, 0x22, 0x23, 0x15,
  0x12, 0x14, 0x16, 0x1d, 0x26, 0x29, 0x29, 0x29, 0x29, 0x29, 0x29, 0x29,
  0x29, 0x29, 0x29, 0x29, 0x29, 0x38, 0x29, 0x19, 0x1e, 0x29, 0x29, 0x29,
  0x27, 0x28, 0x27, 0x26, 0x27, 0x29, 0x29, 0x29, 0x29, 0x29, 0x29, 0x29,
  0x13, 0x2a, 0x26, 0x22, 0x1f, 0x2d, 0x20, 0x17, 0x18, 0x1d, 0x20, 0x1d,
  0x22, 0x1b, 0x0e, 0x1d, 0x0f, 0x14, 0x21, 0x16, 0x22, 0x1c, 0x25, 0x1c,
  0x1d, 0x20, 0x22, 0x1a, 0x20, 0x23, 0x23, 0x24, 0x20, 0x1b, 0x24, 0x18,
  0x2c, 0x24, 0x0b, 0x08, 0x1c, 0x19, 0x1b, 0x22, 0x32, 0x26, 0x29, 0x1a,
  0x21, 0x23, 0x26, 0x23, 0x24, 0x21, 0x25, 0x20, 0x1f, 0x24, 0x32, 0x34,
  0x22, 0x2b, 0x22, 0x23, 0x22, 0x21, 0x21, 0x28, 0x25, 0x22, 0x18, 0x28,
  0x26, 0x26, 0x1e, 0x28, 0x33, 0x1d, 0x27, 0x20, 0x21, 0x2c, 0x2a, 0x28,
  0x22, 0x26, 0x27, 0x29, 0x25, 0x25, 0x29, 0x1f, 0x28, 0x2b, 0x29, 0x28,
  0x2d, 0x2f, 0x23, 0x1f, 0x36, 0x29, 0x26, 0x24, 0x2b, 0x2a, 0x2b, 0x1f,
  0x25, 0x27, 0x23, 0x23, 0x28, 0x22, 0x28, 0x29, 0x28, 0x28, 0x2b, 0x14,
  0x18, 0x2f, 0x22, 0x1f, 0x20, 0x22, 0x24, 0x2b, 0x29, 0x2a, 0x25, 0x27,
  0x2c, 0x2b, 0x29, 0x2a, 0x1e, 0x29, 0x21, 0x32, 0x2f, 0x21, 0x2a, 0x2b,
  0x23, 0x2b, 0x2d, 0x28, 0x2b, 0x26, 0x2d, 0x27, 0x2b, 0x2b, 0x29, 0x2c,
  0x27, 0x29, 0x26, 0x22, 0x2b, 0x29, 0x2d, 0x2a, 0x26, 0x21, 0x22, 0x29,
  0x22, 0x1b, 0x10, 0x1f, 0x29, 0x24, 0x22, 0x27, 0x20, 0x24, 0x1e, 0x19,
  0x05, 0x26, 0x27, 0x26, 0x23, 0x21, 0x1c, 0x1c, 0x1d, 0x14, 0x1a, 0x1d,
  0x27, 0x27, 0x23, 0x29, 0x27, 0x1f, 0x1a, 0x19, 0x29, 0x20, 0x1e, 0x2b,
  0x27, 0x25, 0x27, 0x29, 0x1e, 0x17, 0x18, 0x11, 0x19, 0x2a, 0x21, 0x20,
  0x26, 0x26, 0x28, 0x1e, 0x2f, 0x2e, 0x25, 0x2a, 0x2b, 0x28, 0x27, 0x1d,
  0x12, 0x14, 0x22, 0x1e, 0x25, 0x2a, 0x23, 0x2b, 0x37, 0x2b, 0x2c, 0x28,
  0x26, 0x39, 0x33, 0x2a, 0x2f, 0x29, 0x26, 0x20, 0x1d, 0x17, 0x10, 0x16,
  0x1a, 0x27, 0x24, 0x28, 0x26, 0x28, 0x26, 0x25, 0x2a, 0x2d, 0x2a, 0x30,
  0x30, 0x2d, 0x2d, 0x21, 0x22, 0x1a, 0x19, 0x1c, 0x22, 0x2a, 0x28, 0x2a,
  0x26, 0x2d, 0x2f, 0x23, 0x2d, 0x30, 0x3d, 0x26, 0x24, 0x26, 0x26, 0x1e,
  0x1d, 0x1f, 0x23, 0x28, 0x2d, 0x28, 0x2a, 0x23, 0x2a, 0x35, 0x26, 0x2b,
  0x25, 0x1c, 0x22, 0x27, 0x25, 0x20, 0x25, 0x21, 0x23, 0x28, 0x21, 0x25,
  0x29, 0x26, 0x21, 0x20, 0x2c, 0x2e, 0x30, 0x34, 0x2a, 0x1e, 0x28, 0x2f,
  0x28, 0x22, 0x25, 0x2c, 0x2d, 0x24, 0x24, 0x26, 0x1d, 0x1c, 0x22, 0x21,
  0x1f, 0x26, 0x28, 0x26, 0x28, 0x26, 0x1e, 0x19, 0x1d, 0x1b, 0x25, 0x26,
  0x25, 0x20, 0x24, 0x29, 0x29, 0x21, 0x21, 0x27, 0x1d, 0x1a, 0x24, 0x28,
  0x1f, 0x2d, 0x25, 0x21, 0x23, 0x29, 0x28, 0x30, 0x25, 0x22, 0x21, 0x1e,
  0x21, 0x1c, 0x1a, 0x1f, 0x25, 0x33, 0x22, 0x1f, 0x32, 0x29, 0x2b, 0x22,
  0x26, 0x2a, 0x1e, 0x25, 0x24, 0x25, 0x27, 0x25, 0x27, 0x20, 0x28, 0x21,
  0x28, 0x29, 0x29, 0x22, 0x24, 0x20, 0x39, 0x29, 0x2c, 0x29, 0x29, 0x2b,
  0x28, 0x22, 0x22, 0x21, 0x2b, 0x2b, 0x1a, 0x17, 0x27, 0x20, 0x2b, 0x24,
  0x11, 0x1e, 0x22, 0x28, 0x16, 0x20, 0x27, 0x1d, 0x24, 0x2a, 0x25, 0x27,
  0x26, 0x28, 0x26, 0x1c, 0x1f, 0x26, 0x2e, 0x2f, 0x17, 0x05, 0x20, 0x24,
  0x1b, 0x19, 0x25, 0x25, 0x25, 0x2c, 0x15, 0x1c, 0x2f, 0x2d, 0x2e, 0x1c,
  0x22, 0x22, 0x19, 0x1b, 0x0d, 0x22, 0x29, 0x27, 0x18, 0x08, 0x0e, 0x0f,
  0x15, 0x07, 0x1a, 0x21, 0x26, 0x17, 0x1f, 0x29, 0x15, 0x06, 0x13, 0x11,
  0x23, 0x26, 0x1b, 0x30, 0x1f, 0x32, 0x21, 0x2d, 0x38, 0x3a, 0x36, 0x3a,
  0x1a, 0x14, 0x1b, 0x32, 0x2a, 0x23, 0x27, 0x40, 0x33, 0x24, 0x24, 0x0e,
  0x00, 0x31, 0x1a, 0x32, 0x1a, 0x21, 0x0d, 0x19, 0x19, 0x2a, 0x1d, 0x25,
  0x1b, 0x1e, 0x1e, 0x22, 0x19, 0x1e, 0x0d, 0x0c, 0x0f, 0x1d, 0x32, 0x48,
  0x29, 0x16, 0x10, 0x32, 0x27, 0x39, 0x3f, 0x1e, 0x30, 0x2d, 0x39, 0x39,
  0x4e, 0x45, 0x26, 0x38, 0x27, 0x43, 0x3d, 0x17, 0x12, 0x29, 0x29, 0x29,
  0x29, 0x29, 0x29, 0x22, 0x0d, 0x0b, 0x0b, 0x1b, 0x26, 0x2b, 0x22, 0x14,
  0x1f, 0x3c, 0x4a, 0x38, 0x14, 0x12, 0x11, 0x1e, 0x12, 0x13, 0x29, 0x29,
  0x28, 0x19, 0x47, 0x13, 0x18, 0x2d, 0x2e, 0x31, 0x41, 0x36, 0x3d, 0x30,
  0x28, 0x25, 0x3a, 0x2f, 0x27, 0x2d, 0x3f, 0x35, 0x26, 0x30, 0x56, 0x29,
  0x29, 0x29, 0x0e, 0x22, 0x1f, 0x22, 0x37, 0x28, 0x29, 0x24, 0x28, 0x1a,
  0x1c, 0x16, 0x19, 0x1b, 0x1a, 0x1f, 0x16, 0x15, 0x2b, 0x13, 0x19, 0x29,
  0x29, 0x29, 0x29, 0x29, 0x29, 0x2d, 0x3a, 0x3d, 0x1b, 0x0f, 0x14, 0x16,
  0x22, 0x3c, 0x36, 0x37, 0x3f, 0x48, 0x44, 0x33, 0x29, 0x29, 0x29, 0x29,
  0x29, 0x29, 0x29, 0x29, 0x29, 0x29, 0x29, 0x29, 0x29, 0x29, 0x29, 0x29,
  0x29, 0x21, 0x21, 0x2c, 0x2b, 0x29, 0x29, 0x29, 0x29, 0x29, 0x29, 0x29,
  0x29, 0x29, 0x29, 0x29, 0x29, 0x29, 0x29, 0x29, 0x29, 0x29, 0x29, 0x42,
  0x29, 0x16, 0x0e, 0x1d, 0x16, 0x1a, 0x16, 0x22, 0x11, 0x4d, 0x34, 0x28,
  0x4d, 0x2e, 0x18, 0x47, 0x22, 0x29, 0x46, 0x27, 0x29, 0x38, 0x3e, 0x59,
  0x39, 0x49, 0x38, 0x4c, 0x45, 0x3c, 0x4c, 0x46, 0x31, 0x2c, 0x4f, 0x50,
  0x2d, 0x29, 0x3a, 0x29, 0x29, 0x29, 0x29, 0x29, 0x29, 0x29, 0x29, 0x29,
  0x29, 0x29, 0x20, 0x36, 0x29, 0x31, 0x1d, 0x3c, 0x35, 0x1f, 0x19, 0x45,
  0x3a, 0x30, 0x2e, 0x3d, 0x3f, 0x3f, 0x3b, 0x34, 0x2b, 0x29, 0x29, 0x29,
  0x29, 0x29, 0x29, 0x29, 0x29, 0x29, 0x29, 0x29, 0x29, 0x16, 0x29, 0x27,
  0x2a, 0x29, 0x29, 0x29, 0x2b, 0x2a, 0x2a, 0x2b, 0x2a, 0x29, 0x29, 0x29,
  0x29, 0x29, 0x29, 0x29, 0x40, 0x2a, 0x2b, 0x36, 0x33, 0x12, 0x19, 0x28,
  0x27, 0x17, 0x14, 0x17, 0x1a, 0x22, 0x21, 0x1b, 0x25, 0x22, 0x18, 0x1f,
  0x2b, 0x2e, 0x20, 0x28, 0x1e, 0x19, 0x20, 0x16, 0x1f, 0x1f, 0x22, 0x1b,
  0x1a, 0x23, 0x21, 0x32, 0x23, 0x27, 0x4c, 0x54, 0x46, 0x37, 0x27, 0x23,
  0x24, 0x23, 0x21, 0x23, 0x23, 0x1e, 0x25, 0x29, 0x1a, 0x1c, 0x1f, 0x24,
  0x1f, 0x23, 0x21, 0x2f, 0x32, 0x21, 0x2c, 0x22, 0x20, 0x29, 0x23, 0x22,
  0x24, 0x21, 0x23, 0x1b, 0x23, 0x23, 0x2d, 0x2d, 0x23, 0x30, 0x1e, 0x2b,
  0x35, 0x22, 0x29, 0x21, 0x19, 0x20, 0x20, 0x1c, 0x1f, 0x1c, 0x20, 0x27,
  0x1f, 0x2c, 0x23, 0x22, 0x28, 0x28, 0x1d, 0x23, 0x10, 0x22, 0x19, 0x18,
  0x20, 0x23, 0x26, 0x22, 0x2c, 0x2d, 0x25, 0x23, 0x1e, 0x25, 0x17, 0x1e,
  0x21, 0x24, 0x24, 0x43, 0x39, 0x26, 0x1d, 0x26, 0x22, 0x20, 0x27, 0x1e,
  0x29, 0x2d, 0x2e, 0x33, 0x32, 0x2b, 0x2c, 0x25, 0x29, 0x18, 0x28, 0x18,
  0x18, 0x1d, 0x1f, 0x26, 0x28, 0x2f, 0x2f, 0x31, 0x38, 0x25, 0x21, 0x1f,
  0x22, 0x19, 0x1f, 0x1f, 0x25, 0x1c, 0x27, 0x18, 0x22, 0x28, 0x2a, 0x2f,
  0x2a, 0x27, 0x2b, 0x28, 0x2b, 0x26, 0x32, 0x39, 0x36, 0x37, 0x33, 0x36,
  0x35, 0x41, 0x3a, 0x2f, 0x46, 0x43, 0x3a, 0x34, 0x28, 0x33, 0x34, 0x2f,
  0x30, 0x2e, 0x2e, 0x31, 0x2c, 0x30, 0x33, 0x3a, 0x3e, 0x3b, 0x28, 0x3a,
  0x39, 0x3a, 0x3d, 0x3f, 0x2f, 0x33, 0x2f, 0x27, 0x23, 0x26, 0x2a, 0x2a,
  0x33, 0x39, 0x30, 0x27, 0x27, 0x33, 0x27, 0x32, 0x28, 0x27, 0x2b, 0x32,
  0x2e, 0x2f, 0x2e, 0x2d, 0x2b, 0x28, 0x22, 0x23, 0x28, 0x29, 0x2f, 0x36,
  0x35, 0x43, 0x54, 0x3e, 0x34, 0x30, 0x2a, 0x40, 0x31, 0x24, 0x29, 0x2b,
  0x24, 0x22, 0x26, 0x30, 0x30, 0x2f, 0x27, 0x28, 0x33, 0x2e, 0x39, 0x26,
  0x1f, 0x31, 0x29, 0x25, 0x2a, 0x28, 0x23, 0x29, 0x2d, 0x2b, 0x1e, 0x23,
  0x2c, 0x2c, 0x37, 0x3f, 0x3c, 0x34, 0x26, 0x27, 0x1a, 0x21, 0x14, 0x2e,
  0x2e, 0x33, 0x2e, 0x2a, 0x2a, 0x2a, 0x32, 0x2e, 0x22, 0x26, 0x27, 0x2c,
  0x24, 0x1d, 0x27, 0x1d, 0x1f, 0x21, 0x29, 0x2b, 0x2d, 0x25, 0x24, 0x25,
  0x27, 0x26, 0x1f, 0x24, 0x27, 0x2a, 0x2f, 0x2d, 0x21, 0x10, 0x1f, 0x15,
  0x18, 0x27, 0x1e, 0x1d, 0x1b, 0x1e, 0x26, 0x1f, 0x20, 0x27, 0x31, 0x27,
  0x2e, 0x25, 0x1f, 0x25, 0x2f, 0x1f, 0x1a, 0x1c, 0x13, 0x1a, 0x26, 0x27,
  0x22, 0x2d, 0x24, 0x31, 0x2c, 0x2d, 0x23, 0x28, 0x2d, 0x2f, 0x1a, 0x19,
  0x1c, 0x2b, 0x1e, 0x1d, 0x2c, 0x31, 0x21, 0x1c, 0x24, 0x21, 0x2b, 0x1d,
  0x27, 0x22, 0x27, 0x2a, 0x2b, 0x24, 0x32, 0x24, 0x1e, 0x13, 0x26, 0x19,
  0x28, 0x23, 0x2c, 0x2a, 0x26, 0x21, 0x2b, 0x20, 0x2d, 0x21, 0x26, 0x20,
  0x1c, 0x2a, 0x2c, 0x2c, 0x1b, 0x29, 0x2f, 0x24, 0x11, 0x22, 0x2e, 0x37,
  0x23, 0x2d, 0x2a, 0x29, 0x21, 0x27, 0x23, 0x24, 0x25, 0x2d, 0x2f, 0x36,
  0x22, 0x18, 0x19, 0x0f, 0x46, 0x2d, 0x1e, 0x0f, 0x1f, 0x23, 0x1e, 0x1e,
  0x23, 0x1a, 0x1e, 0x1e, 0x1e, 0x21, 0x25, 0x2a, 0x36, 0x2b, 0x33, 0x33,
  0x44, 0x40, 0x3b, 0x41, 0x2a, 0x29, 0x21, 0x1e, 0x17, 0x20, 0x3b, 0x3f,
  0x38, 0x3e, 0x39, 0x46, 0x38, 0x33, 0x4c, 0x49, 0x46, 0x2f, 0x29, 0x2a,
  0x3a, 0x49, 0x41, 0x2c, 0x2e, 0x41, 0x38, 0x2c, 0x22, 0x38, 0x2d, 0x22,
  0x2e, 0x2a, 0x3d, 0x43, 0x41, 0x38, 0x48, 0x3c, 0x28, 0x0b, 0x2c, 0x1e,
  0x08, 0xf6, 0xfe, 0x10, 0x09, 0x44, 0x36, 0x1a, 0x09, 0x14, 0x12, 0x17,
  0x19, 0x2c, 0x33, 0x44, 0x46, 0x27, 0x60, 0x58, 0x4e, 0x39, 0x2e, 0x19,
  0x24, 0x0a, 0x14, 0x1f, 0x23, 0x2a, 0x34, 0x2c, 0x28, 0x29, 0x37, 0x33,
  0x37, 0x44, 0x3b, 0x0e, 0x29, 0x3e, 0x44, 0x22, 0x2f, 0x17, 0x0b, 0x32,
  0x28, 0x29, 0x2c, 0x23, 0x01, 0x15, 0x30, 0x28, 0x37, 0x10, 0x17, 0x3c,
  0x42, 0x29, 0x29, 0x29, 0x29, 0x29, 0x29, 0x2e, 0x44, 0x46, 0x45, 0x32,
  0x29, 0x21, 0x2c, 0x3a, 0x25, 0x14, 0xff, 0x28, 0x42, 0x40, 0x42, 0x36,
  0x40, 0x3e, 0x29, 0x29, 0x2a, 0x3c, 0xfa, 0x0d, 0x0f, 0xfe, 0x0b, 0x00,
  0xf0, 0xe1, 0xf8, 0x14, 0x3d, 0x2b, 0x05, 0x2e, 0x2b, 0x2e, 0x47, 0x49,
  0x4e, 0x38, 0x2a, 0x29, 0x29, 0x29, 0x33, 0x2f, 0x3b, 0x2c, 0x1c, 0x2d,
  0x29, 0x0d, 0x1b, 0x1b, 0x0f, 0x18, 0x1b, 0x2a, 0x2f, 0x36, 0x48, 0x47,
  0x2a, 0x40, 0x37, 0x29, 0x29, 0x29, 0x29, 0x29, 0x29, 0x25, 0x1a, 0x15,
  0x3b, 0x48, 0x3f, 0x3d, 0x39, 0x14, 0x15, 0x21, 0x17, 0x0b, 0x0e, 0x25,
  0x29, 0x29, 0x29, 0x29, 0x29, 0x29, 0x29, 0x29, 0x29, 0x29, 0x29, 0x29,
  0x29, 0x29, 0x29, 0x29, 0x29, 0x38, 0x37, 0x25, 0x26, 0x29, 0x29, 0x29,
  0x29, 0x29, 0x29, 0x29, 0x29, 0x29, 0x29, 0x29, 0x29, 0x29, 0x29, 0x29,
  0x29, 0x29, 0x29, 0x3a, 0x29, 0x1d, 0x39, 0x2c, 0x42, 0x44, 0x29, 0x2b,
  0x14, 0x46, 0x10, 0xfb, 0x43, 0x20, 0xe8, 0xd3, 0x1f, 0x29, 0xf7, 0x30,
  0x29, 0x2e, 0x17, 0xed, 0x2f, 0x11, 0x1f, 0x0e, 0x39, 0x3e, 0x06, 0x12,
  0x26, 0x2c, 0x0f, 0x15, 0x2d, 0x29, 0x31, 0x29, 0x29, 0x29, 0x29, 0x29,
  0x29, 0x29, 0x29, 0x29, 0x29, 0x29, 0x33, 0x25, 0x30, 0x20, 0x33, 0x11,
  0x1f, 0x32, 0x38, 0x11, 0x1e, 0x24, 0x23, 0x17, 0x17, 0x16, 0x17, 0x1c,
  0x26, 0x29, 0x29, 0x29, 0x29, 0x29, 0x29, 0x29, 0x29, 0x29, 0x29, 0x29,
  0x29, 0x3c, 0x29, 0x39, 0x35, 0x29, 0x29, 0x29, 0x2a, 0x29, 0x28, 0x26,
  0x28, 0x29, 0x29, 0x29, 0x29, 0x29, 0x29, 0x29, 0x23, 0x2c, 0x2f, 0x35,
  0x36, 0x39, 0x36, 0x3d, 0x40, 0x42, 0x31, 0x28, 0x2e, 0x31, 0x2a, 0x27,
  0x1c, 0x21, 0x20, 0x2a, 0x1c, 0xfa, 0x1e, 0x1b, 0x1f, 0x24, 0x17, 0x23,
  0x22, 0x2e, 0x22, 0x2c, 0x29, 0x2a, 0x29, 0x1f, 0x35, 0x29, 0x25, 0x10,
  0x2d, 0x1c, 0x1e, 0x2d, 0x26, 0x31, 0x24, 0x28, 0x26, 0x29, 0x21, 0x22,
  0x17, 0x0f, 0x14, 0x0f, 0x10, 0x1d, 0x1f, 0x30, 0x0c, 0x18, 0x2a, 0x24,
  0x20, 0x29, 0x29, 0x2a, 0x2a, 0x21, 0x1f, 0x23, 0x2b, 0x2f, 0x24, 0x2a,
  0x2b, 0x22, 0x10, 0x28, 0x4c, 0x20, 0x24, 0x2e, 0x1e, 0x1a, 0x2b, 0x36,
  0x33, 0x2f, 0x29, 0x2d, 0x21, 0x20, 0x26, 0x28, 0x23, 0x27, 0x20, 0x0c,
  0x17, 0x18, 0x19, 0x21, 0x26, 0x22, 0x2a, 0x25, 0x2f, 0x2f, 0x2a, 0x29,
  0x2e, 0x33, 0x2a, 0x2f, 0x2a, 0x2b, 0x33, 0x3b, 0x3d, 0x3f, 0x27, 0x27,
  0x30, 0x2e, 0x23, 0x2a, 0x27, 0x28, 0x3a, 0x3c, 0x35, 0x2a, 0x26, 0x1d,
  0x20, 0x23, 0x15, 0x16, 0x17, 0x1c, 0x26, 0x2c, 0x27, 0x24, 0x29, 0x33,
  0x3e, 0x39, 0x26, 0x16, 0x20, 0x1b, 0x22, 0x26, 0x13, 0x2b, 0x3f, 0x37,
  0x28, 0x30, 0x1d, 0x21, 0x1a, 0x19, 0x1b, 0x18, 0x0e, 0x1b, 0x33, 0x39,
  0x2e, 0x29, 0x34, 0x28, 0x2c, 0x23, 0x28, 0x0e, 0x1c, 0x2c, 0x22, 0x1e,
  0x24, 0x28, 0x27, 0x28, 0x2b, 0x2a, 0x0b, 0xfb, 0x05, 0x05, 0x0a, 0x0e,
  0x06, 0x0c, 0x16, 0x31, 0x28, 0x08, 0x02, 0xfe, 0x08, 0x08, 0x0b, 0x05,
  0xff, 0x22, 0x2f, 0x2d, 0x2d, 0x26, 0x16, 0x16, 0x1b, 0x24, 0x24, 0x1b,
  0x2a, 0x14, 0x15, 0x21, 0x24, 0x16, 0x19, 0x2c, 0x30, 0x3c, 0x2a, 0x0c,
  0x0a, 0x09, 0x10, 0x21, 0x1c, 0x20, 0x0f, 0x10, 0x15, 0x2a, 0x2b, 0x1b,
  0x1f, 0x16, 0x17, 0x19, 0x13, 0x30, 0x39, 0x31, 0x24, 0x26, 0x28, 0x2a,
  0x1f, 0x29, 0x15, 0x20, 0x20, 0x21, 0x28, 0x27, 0x23, 0x23, 0x20, 0x25,
  0x26, 0x32, 0x35, 0x2c, 0x1a, 0x1e, 0x19, 0x12, 0x21, 0x2b, 0x3b, 0x31,
  0x36, 0x33, 0x29, 0x1c, 0x17, 0x20, 0x1e, 0x21, 0x32, 0x3d, 0x2e, 0x2e,
  0x21, 0x16, 0x1a, 0x1c, 0x26, 0x1f, 0x1f, 0x19, 0x23, 0x2a, 0x18, 0x1d,
  0x14, 0x1e, 0x29, 0x20, 0x21, 0x2e, 0x34, 0x32, 0x28, 0x20, 0x19, 0x1c,
  0x20, 0x19, 0x1a, 0x3a, 0x2c, 0x07, 0x16, 0x24, 0x26, 0x30, 0x25, 0x22,
  0x2e, 0x32, 0x25, 0x22, 0x26, 0x28, 0x2b, 0x2d, 0x1d, 0x1a, 0x23, 0x28,
  0x24, 0x22, 0x2c, 0x28, 0x2d, 0x2b, 0x1b, 0x20, 0x17, 0x1e, 0x24, 0x26,
  0x28, 0x24, 0x2b, 0x27, 0x30, 0x1d, 0x0d, 0x24, 0x23, 0x1e, 0x2e, 0x2d,
  0x21, 0x2d, 0x2c, 0x24, 0x27, 0x22, 0x1e, 0x1f, 0x23, 0x2a, 0x27, 0x28,
  0x1c, 0x26, 0x1c, 0x2c, 0x16, 0x0d, 0x24, 0x1d, 0x20, 0x27, 0x27, 0x23,
  0x1c, 0x24, 0x17, 0x1e, 0x19, 0x2b, 0x26, 0x2c, 0x38, 0x34, 0x36, 0x41,
  0x2f, 0x2b, 0x36, 0x38, 0x25, 0x15, 0x13, 0x10, 0x21, 0x1a, 0x1c, 0x1e,
  0x26, 0x2a, 0x1a, 0x29, 0x13, 0x12, 0x21, 0x2a, 0x26, 0x1e, 0x11, 0x24,
  0x38, 0x31, 0x2b, 0x10, 0x1f, 0x1d, 0x1a, 0x1c, 0x1c, 0x1c, 0x1e, 0x22,
  0x27, 0x1b, 0x25, 0x19, 0x00, 0x13, 0x44, 0x3e, 0x24, 0x17, 0x19, 0x0c,
  0x2c, 0x35, 0x25, 0x4b, 0x45, 0x37, 0x43, 0x3b, 0x47, 0x4a, 0x2a, 0x27,
  0x0d, 0x2a, 0x29, 0x28, 0x1f, 0x33, 0x35, 0x3f, 0x2d, 0x24, 0x32, 0x4f,
  0x49, 0x4d, 0x4f, 0x3b, 0x26, 0x2e, 0x0b, 0x19, 0x12, 0x19, 0x43, 0x3b,
  0x0f, 0x09, 0x27, 0x1c, 0x0d, 0xfc, 0x05, 0x03, 0x05, 0x14, 0x35, 0x32,
  0x31, 0x2b, 0x32, 0x45, 0x44, 0x58, 0x5c, 0x4f, 0x2d, 0x20, 0x20, 0x0e,
  0x2c, 0x39, 0x35, 0x2a, 0x2b, 0x33, 0x29, 0x2f, 0x3c, 0x29, 0x2d, 0x1c,
  0x1d, 0x1c, 0x17, 0x1b, 0x18, 0x2d, 0x4c, 0x44, 0x29, 0x06, 0x04, 0x32,
  0x2b, 0x27, 0x3a, 0x35, 0x3c, 0x3a, 0x16, 0x2b, 0x49, 0x30, 0x2a, 0x19,
  0x1e, 0x43, 0x3f, 0x1c, 0x3b, 0x29, 0x29, 0x29, 0x29, 0x29, 0x29, 0x2e,
  0x40, 0x3c, 0x27, 0x26, 0x2c, 0x37, 0x2c, 0x21, 0x4f, 0x4c, 0x37, 0x08,
  0x1c, 0x2c, 0x2d, 0x24, 0x39, 0x3d, 0x29, 0x29, 0x28, 0x30, 0x10, 0x26,
  0x0f, 0x0e, 0x13, 0x0b, 0x04, 0x19, 0x3e, 0x36, 0x23, 0x2f, 0x63, 0x51,
  0x5a, 0x65, 0x78, 0x55, 0x50, 0x40, 0x12, 0x29, 0x29, 0x29, 0x28, 0x45,
  0x53, 0x3b, 0x40, 0x3c, 0x3b, 0x2b, 0x2b, 0x2f, 0x26, 0x15, 0x1f, 0x37,
  0x47, 0x41, 0x39, 0x2c, 0x1f, 0x23, 0x2b, 0x29, 0x29, 0x29, 0x29, 0x29,
  0x29, 0x2f, 0x38, 0x3b, 0x1c, 0x11, 0x13, 0x14, 0x15, 0x37, 0x3b, 0x3b,
  0x3a, 0x30, 0x42, 0x2d, 0x29, 0x29, 0x29, 0x29, 0x29, 0x29, 0x29, 0x29,
  0x29, 0x29, 0x29, 0x29, 0x29, 0x29, 0x29, 0x29, 0x29, 0x22, 0x24, 0x2c,
  0x2b, 0x29, 0x29, 0x29, 0x29, 0x29, 0x29, 0x29, 0x29, 0x29, 0x29, 0x29,
  0x29, 0x29, 0x29, 0x29, 0x29, 0x29, 0x29, 0x10, 0x29, 0x3b, 0x2c, 0x15,
  0x1c, 0x17, 0x23, 0x20, 0x3e, 0x4b, 0x40, 0x4c, 0x47, 0x21, 0x23, 0x4e,
  0x1f, 0x29, 0x4f, 0x2e, 0x29, 0x1c, 0x53, 0x64, 0x1c, 0x34, 0x42, 0x59,
  0x43, 0x41, 0x49, 0x29, 0x26, 0x26, 0x07, 0x08, 0x25, 0x29, 0x1e, 0x29,
  0x29, 0x29, 0x29, 0x29, 0x29, 0x29, 0x29, 0x29, 0x29, 0x29, 0x37, 0x50,
  0x45, 0x4d, 0x4a, 0x50, 0x3d, 0x32, 0x34, 0x49, 0x40, 0x31, 0x32, 0x3a,
  0x40, 0x3f, 0x39, 0x33, 0x2b, 0x29, 0x29, 0x29, 0x29, 0x29, 0x29, 0x29,
  0x29, 0x29, 0x29, 0x29, 0x29, 0x31, 0x29, 0x39, 0x35, 0x29, 0x29, 0x29,
  0x2a, 0x2a, 0x2a, 0x2b, 0x2a, 0x29, 0x29, 0x29, 0x29, 0x29, 0x29, 0x29,
  0x42, 0x1c, 0x24, 0x18, 0x20, 0x2e, 0x25, 0x1f, 0x15, 0x0b, 0x09, 0x12,
  0x15, 0x20, 0x18, 0x0d, 0x0d, 0x0d, 0x14, 0x22, 0x09, 0x06, 0x00, 0xfb,
  0x03, 0x13, 0x0b, 0x17, 0x1a, 0x1a, 0x1d, 0x32, 0x38, 0x1d, 0x2d, 0x2a,
  0x22, 0x31, 0x3b, 0x3b, 0x15, 0x30, 0x28, 0x30, 0x1a, 0x19, 0x1d, 0x41,
  0x39, 0x3b, 0x24, 0x1d, 0x25, 0x2d, 0x2b, 0x26, 0x0d, 0x06, 0xf7, 0xed,
  0x06, 0x13, 0x29, 0x29, 0x30, 0x31, 0x39, 0x33, 0x33, 0x32, 0x37, 0x29,
  0x27, 0x1f, 0x26, 0x19, 0x14, 0x0f, 0x01, 0x11, 0xfe, 0xf0, 0x1c, 0x0f,
  0x22, 0x23, 0x29, 0x23, 0x30, 0x36, 0x35, 0x3a, 0x36, 0x33, 0x2d, 0x32,
  0x33, 0x22, 0x24, 0x26, 0x21, 0x24, 0x2f, 0x31, 0x34, 0x33, 0x31, 0x33,
  0x35, 0x2e, 0x2b, 0x21, 0x20, 0x25, 0x23, 0x23, 0x19, 0x22, 0x1f, 0x0d,
  0x0d, 0x24, 0x2b, 0x2f, 0x23, 0x29, 0x2b, 0x25, 0x25, 0x27, 0x2c, 0x2f,
  0x2b, 0x30, 0x39, 0x31, 0x33, 0x22, 0x25, 0x25, 0x27, 0x2f, 0x29, 0x25,
  0x2d, 0x2d, 0x25, 0x27, 0x19, 0x1e, 0x10, 0x23, 0x29, 0x20, 0x24, 0x29,
  0x28, 0x31, 0x35, 0x10, 0x11, 0x34, 0x2c, 0x28, 0x23, 0x21, 0x24, 0x27,
  0x1e, 0x1a, 0x22, 0x23, 0x25, 0x2b, 0x2a, 0x2e, 0x38, 0x2d, 0x23, 0x1f,
  0x2c, 0x1c, 0x2d, 0x32, 0x38, 0x28, 0x29, 0x21, 0x21, 0x32, 0x2c, 0x24,
  0x21, 0x2b, 0x24, 0x22, 0x1b, 0x2b, 0x33, 0x27, 0x1b, 0x20, 0x16, 0x26,
  0x2c, 0x2b, 0x29, 0x28, 0x2e, 0x3a, 0x29, 0x24, 0x29, 0x2b, 0x33, 0x36,
  0x2d, 0x29, 0x1f, 0x1b, 0xf9, 0x1c, 0x23, 0x23, 0x28, 0x2a, 0x2c, 0x27,
  0x22, 0x1d, 0x30, 0x2a, 0x22, 0x1f, 0x22, 0x26, 0x21, 0x23, 0x18, 0x2b,
  0x34, 0x20, 0x19, 0x20, 0x20, 0x25, 0x25, 0x24, 0x23, 0x23, 0x15, 0x20,
  0x2c, 0x26, 0x23, 0x22, 0x20, 0x19, 0x22, 0x03, 0x1a, 0x20, 0x20, 0x1a,
  0x15, 0x1d, 0x25, 0x2d, 0x1b, 0x19, 0x20, 0x1d, 0x22, 0x22, 0x21, 0x17,
  0x1e, 0x23, 0x26, 0x31, 0x2a, 0x23, 0x20, 0x21, 0x17, 0x1b, 0x1b, 0x1c,
  0x16, 0x14, 0x16, 0x25, 0x29, 0x23, 0x25, 0x20, 0x19, 0x12, 0x1a, 0x17,
  0x17, 0x1d, 0x17, 0x1f, 0x1a, 0x25, 0x25, 0x28, 0x23, 0x1b, 0x09, 0x07,
  0x11, 0x18, 0x22, 0x26, 0x2f, 0x3d, 0x1f, 0x20, 0x29, 0x29, 0x40, 0x36,
  0x2e, 0x1f, 0x11, 0x10, 0x0b, 0x17, 0x18, 0x17, 0x23, 0x24, 0x1f, 0x29,
  0x29, 0x1a, 0x13, 0x1e, 0x3c, 0x2d, 0x16, 0x2b, 0x27, 0x1a, 0x15, 0x16,
  0x07, 0x0b, 0x11, 0x04, 0x0e, 0x06, 0x0c, 0x1f, 0x39, 0x49, 0x3d, 0x37,
  0x39, 0x2b, 0x36, 0x2a, 0x0a, 0x07, 0x13, 0x06, 0x13, 0x15, 0x17, 0x15,
  0x15, 0x18, 0x1a, 0x24, 0x1e, 0x19, 0x39, 0x4f, 0x4e, 0x3d, 0x2a, 0x2a,
  0x17, 0x1e, 0x24, 0x1b, 0x11, 0x21, 0x22, 0x23, 0x1f, 0x28, 0x27, 0x30,
  0x29, 0x2c, 0x14, 0x2e, 0x30, 0x34, 0x0e, 0x2c, 0x31, 0x27, 0x2d, 0x2c,
  0x29, 0x2c, 0x29, 0x25, 0x1e, 0x2a, 0x2b, 0x2c, 0x2b, 0x41, 0x50, 0x53,
  0x58, 0x4e, 0x37, 0x31, 0x39, 0x2f, 0x2b, 0x2a, 0x28, 0x27, 0x26, 0x2a,
  0x2e, 0x31, 0x2e, 0x37, 0x25, 0x1a, 0x2e, 0x23, 0x19, 0x4a, 0x3c, 0x28,
  0x3a, 0x39, 0x38, 0x34, 0x34, 0x35, 0x41, 0x3e, 0x27, 0x12, 0x1b, 0x1a,
  0x1b, 0x26, 0x43, 0x3d, 0x44, 0x24, 0x29, 0x28, 0x17, 0x05, 0x0c, 0x16,
  0x16, 0x0f, 0x23, 0x1c, 0x15, 0x10, 0x1a, 0x14, 0x1c, 0x22, 0x03, 0x0b,
  0x16, 0x1c, 0x0a, 0x16, 0x1f, 0x41, 0x06, 0xf6, 0x17, 0x29, 0x24, 0x1b,
  0x17, 0x07, 0x17, 0xf2, 0x1e, 0x32, 0x1b, 0x29, 0x31, 0x3c, 0x45, 0x54,
  0x57, 0x2b, 0x4a, 0x32, 0x30, 0x28, 0x3b, 0x2c, 0x36, 0x2c, 0x35, 0x2c,
  0x32, 0x2a, 0x2b, 0x2d, 0x2f, 0x27, 0x2f, 0x2c, 0x30, 0x34, 0x2d, 0x04,
  0x29, 0x17, 0x1b, 0x1f, 0x28, 0x14, 0x00, 0x2e, 0x26, 0x26, 0x15, 0x0d,
  0xfb, 0x02, 0x1e, 0x30, 0x27, 0x0c, 0x10, 0x28, 0x1b, 0x29, 0x29, 0x29,
  0x29, 0x29, 0x29, 0x24, 0x0c, 0x0a, 0x0c, 0x1b, 0x27, 0x2a, 0x19, 0x0d,
  0x1a, 0x0f, 0x0e, 0x03, 0x0f, 0x0e, 0x0d, 0x19, 0x11, 0x14, 0x29, 0x29,
  0x28, 0x15, 0x51, 0x25, 0x15, 0x11, 0x21, 0x22, 0x1f, 0x2c, 0x1d, 0x15,
  0xfd, 0x10, 0x2c, 0xf2, 0xfe, 0x0a, 0xff, 0x03, 0x27, 0x2e, 0x01, 0x29,
  0x29, 0x29, 0x3e, 0x2c, 0x2b, 0x2d, 0x21, 0x2f, 0x29, 0x2d, 0x2c, 0x2f,
  0x30, 0x37, 0x30, 0x31, 0x30, 0x2a, 0x36, 0x39, 0x1a, 0x42, 0x3b, 0x29,
  0x29, 0x29, 0x29, 0x29, 0x29, 0x25, 0x14, 0x14, 0x25, 0x2f, 0x3b, 0x3b,
  0x1e, 0x0d, 0x12, 0x17, 0x16, 0x0f, 0x13, 0x1b, 0x29, 0x29, 0x29, 0x29,
  0x29, 0x29, 0x29, 0x29, 0x29, 0x29, 0x29, 0x29, 0x29, 0x29, 0x29, 0x29,
  0x29, 0x19, 0x1a, 0x2c, 0x2b, 0x29, 0x29, 0x29, 0x29, 0x29, 0x29, 0x29,
  0x29, 0x29, 0x29, 0x29, 0x29, 0x29, 0x29, 0x29, 0x29, 0x29, 0x29, 0x19,
  0x29, 0x3b, 0x23, 0x11, 0x0e, 0x0c, 0x16, 0x19, 0x3f, 0x07, 0x0f, 0x15,
  0x05, 0x26, 0x47, 0x4a, 0x21, 0x29, 0x36, 0x27, 0x29, 0x1b, 0x50, 0x4b,
  0x1a, 0x33, 0x12, 0x24, 0x14, 0x12, 0x4b, 0x3c, 0x27, 0x27, 0x08, 0x03,
  0x26, 0x29, 0x12, 0x29, 0x29, 0x29, 0x29, 0x29, 0x29, 0x29, 0x29, 0x29,
  0x29, 0x29, 0x2d, 0x16, 0x24, 0x1d, 0x32, 0x13, 0x1b, 0x31, 0x37, 0x0b,
  0x15, 0x22, 0x23, 0x14, 0x11, 0x13, 0x15, 0x1c, 0x25, 0x29, 0x29, 0x29,
  0x29, 0x29, 0x29, 0x29, 0x29, 0x29, 0x29, 0x29, 0x29, 0x3c, 0x29, 0x1b,
  0x20, 0x29, 0x29, 0x29, 0x27, 0x28, 0x28, 0x28, 0x28, 0x29, 0x29, 0x29,
  0x29, 0x29, 0x29, 0x29, 0x47, 0x2a, 0x2a, 0x35, 0x37, 0x2a, 0x24, 0x19,
  0x07, 0x12, 0x16, 0x19, 0x1b, 0x18, 0x1f, 0x2e, 0x2a, 0x2e, 0x2e, 0x24,
  0x26, 0x37, 0x26, 0x22, 0x15, 0x0f, 0x1f, 0x13, 0x15, 0x10, 0x12, 0x16,
  0x16, 0x0e, 0x0d, 0x19, 0x15, 0x22, 0x22, 0x42, 0x2b, 0x1e, 0x0d, 0x13,
  0x2b, 0x16, 0x28, 0x23, 0x24, 0x1a, 0x1d, 0x18, 0x18, 0x1d, 0x1e, 0x1e,
  0x20, 0x1c, 0x23, 0x23, 0x2f, 0x26, 0x21, 0x22, 0x22, 0x1e, 0x27, 0x25,
  0x1e, 0x1f, 0x21, 0x27, 0x26, 0x21, 0x36, 0x33, 0x2f, 0x23, 0x39, 0x29,
  0x10, 0x2b, 0x37, 0x28, 0x2f, 0x33, 0x2e, 0x24, 0x27, 0x1f, 0x23, 0x24,
  0x2d, 0x38, 0x1d, 0x18, 0x2b, 0x23, 0x21, 0x2c, 0x32, 0x2b, 0x24, 0x27,
  0x22, 0x1f, 0x26, 0x1e, 0x23, 0x22, 0x24, 0x1e, 0x22, 0x22, 0x2a, 0x29,
  0x23, 0x2f, 0x31, 0x14, 0x22, 0x28, 0x1d, 0x28, 0x1b, 0x1a, 0x25, 0x28,
  0x2c, 0x22, 0x20, 0x21, 0x1b, 0x1c, 0x1e, 0x26, 0x2b, 0x21, 0x2a, 0x2d,
  0x27, 0x22, 0x24, 0x26, 0x23, 0x2c, 0x21, 0x21, 0x16, 0x18, 0x25, 0x23,
  0x2f, 0x29, 0x2a, 0x26, 0x2a, 0x22, 0x2e, 0x0e, 0x21, 0x28, 0x33, 0x38,
  0x39, 0x39, 0x35, 0x35, 0x30, 0x25, 0x10, 0x19, 0x36, 0x36, 0x29, 0x2d,
  0x26, 0x34, 0x29, 0x28, 0x1b, 0x2e, 0x2d, 0x33, 0x25, 0x24, 0x2f, 0x2c,
  0x22, 0x14, 0x1e, 0x36, 0x3d, 0x46, 0x3d, 0x44, 0x50, 0x44, 0x26, 0x3a,
  0x50, 0x45, 0x40, 0x4f, 0x34, 0x3e, 0x42, 0x3b, 0x28, 0x10, 0x19, 0x1d,
  0x21, 0x2b, 0x32, 0x34, 0x34, 0x3c, 0x22, 0x1f, 0x35, 0x3f, 0x36, 0x42,
  0x37, 0x3e, 0x2e, 0x21, 0x1b, 0x13, 0x0f, 0x16, 0x2c, 0x39, 0x32, 0x38,
  0x41, 0x4b, 0x5a, 0x53, 0x36, 0x2d, 0x36, 0x3d, 0x32, 0x23, 0x2f, 0x24,
  0x1b, 0x0c, 0x04, 0x18, 0x25, 0x37, 0x34, 0x34, 0x49, 0x3e, 0x3d, 0x29,
  0x0f, 0x36, 0x2e, 0x33, 0x33, 0x35, 0x39, 0x2b, 0x27, 0x13, 0x15, 0x19,
  0x26, 0x28, 0x2c, 0x30, 0x31, 0x37, 0x13, 0x20, 0x13, 0x20, 0x2b, 0x2b,
  0x29, 0x25, 0x1e, 0x24, 0x17, 0x16, 0x21, 0x30, 0x39, 0x3b, 0x3b, 0x31,
  0x32, 0x20, 0x1a, 0x2b, 0x1d, 0x0e, 0x17, 0x27, 0x2f, 0x2b, 0x29, 0x36,
  0x2d, 0x2b, 0x19, 0x1f, 0x29, 0x24, 0x1e, 0x25, 0x29, 0x2b, 0x25, 0x0f,
  0x12, 0x2a, 0x2b, 0x20, 0x1d, 0x1b, 0x1e, 0x26, 0x23, 0x1c, 0x2c, 0x21,
  0x1d, 0x15, 0x11, 0x1a, 0x22, 0x12, 0x19, 0x12, 0x1b, 0x20, 0x0e, 0x13,
  0x16, 0x0f, 0x18, 0x24, 0x1e, 0x25, 0x18, 0x1b, 0x1e, 0x16, 0x11, 0x13,
  0x0a, 0x1f, 0x2d, 0x1d, 0x17, 0x20, 0x02, 0x09, 0x1f, 0x17, 0x1d, 0x22,
  0x27, 0x21, 0x21, 0x1a, 0x1d, 0x15, 0x18, 0x18, 0x1a, 0x13, 0x20, 0x1b,
  0x38, 0x1f, 0x21, 0x1d, 0x18, 0x15, 0x1b, 0x26, 0x26, 0x20, 0x28, 0x2a,
  0x27, 0x22, 0x25, 0x26, 0x10, 0x00, 0x05, 0x0c, 0x36, 0x27, 0x1d, 0x25,
  0x23, 0x20, 0x27, 0x22, 0x1b, 0x21, 0x26, 0x25, 0x22, 0x1d, 0x1f, 0x18,
  0x2b, 0x34, 0x31, 0x27, 0x45, 0x40, 0x39, 0x24, 0x04, 0x07, 0x1d, 0x29,
  0x22, 0x1f, 0x1b, 0x1d, 0x29, 0x2e, 0x26, 0x35, 0x2f, 0x38, 0x58, 0x5c,
  0x49, 0x38, 0x01, 0x03, 0x18, 0x1c, 0x2d, 0x39, 0x22, 0x27, 0x3e, 0x32,
  0x37, 0x27, 0x2c, 0x25, 0x0f, 0x2d, 0x2d, 0x2f, 0x44, 0x2d, 0x29, 0x2a,
  0x3a, 0x48, 0x37, 0x34, 0x37, 0x39, 0x29, 0x0c, 0x17, 0x0f, 0x0a, 0x1b,
  0x34, 0x1a, 0x47, 0x49, 0x3e, 0x32, 0x44, 0x3a, 0x4e, 0x27, 0x27, 0x31,
  0x3a, 0x39, 0x35, 0x39, 0x1a, 0x17, 0x10, 0x1d, 0x0e, 0x0b, 0x1c, 0x1d,
  0x1b, 0x0a, 0x13, 0x2b, 0x3d, 0x2d, 0x61, 0x58, 0x3f, 0x2b, 0x32, 0x29,
  0x38, 0x2e, 0x36, 0x31, 0x2e, 0x2f, 0x39, 0x44, 0x44, 0x3f, 0x40, 0x43,
  0x3e, 0x59, 0x5b, 0x3b, 0x29, 0x1d, 0x29, 0x1f, 0x26, 0x33, 0x3a, 0x1c,
  0x11, 0x14, 0x1f, 0x2c, 0x0c, 0x0c, 0x24, 0x19, 0x27, 0x19, 0x25, 0x3f,
  0x12, 0x29, 0x29, 0x29, 0x29, 0x29, 0x29, 0x2d, 0x43, 0x45, 0x43, 0x30,
  0x29, 0x21, 0x2a, 0x38, 0x03, 0xf7, 0xf0, 0x1a, 0x42, 0x3f, 0x41, 0x35,
  0x40, 0x3e, 0x29, 0x29, 0x2a, 0x3d, 0x34, 0x27, 0x2b, 0x2f, 0x2a, 0x33,
  0x49, 0x2d, 0x1b, 0x0a, 0x2c, 0x1f, 0xfe, 0x25, 0x08, 0xfe, 0xfe, 0x09,
  0x12, 0x28, 0x28, 0x29, 0x29, 0x29, 0x39, 0x35, 0x38, 0x43, 0x48, 0x53,
  0x3d, 0x50, 0x5c, 0x32, 0x2c, 0x38, 0x33, 0x45, 0x37, 0x2e, 0x45, 0x44,
  0x14, 0x47, 0x39, 0x29, 0x29, 0x29, 0x29, 0x29, 0x29, 0x22, 0x1c, 0x1a,
  0x2d, 0x3a, 0x3c, 0x3e, 0x3e, 0x23, 0x1d, 0x1f, 0x31, 0x40, 0x39, 0x40,
  0x29, 0x29, 0x29, 0x29, 0x29, 0x29, 0x29, 0x29, 0x29, 0x29, 0x29, 0x29,
  0x29, 0x29, 0x29, 0x29, 0x29, 0x33, 0x32, 0x26, 0x26, 0x29, 0x29, 0x29,
  0x29, 0x29, 0x29, 0x29, 0x29, 0x29, 0x29, 0x29, 0x29, 0x29, 0x29, 0x29,
  0x29, 0x29, 0x29, 0x3f, 0x29, 0x16, 0x25, 0x3e, 0x39, 0x3e, 0x2b, 0x21,
  0x11, 0x4d, 0x2e, 0x1d, 0x4c, 0x2c, 0x0f, 0x0f, 0x1f, 0x29, 0x0c, 0x28,
  0x29, 0x26, 0x0a, 0xf4, 0x26, 0x14, 0x2d, 0x17, 0x10, 0x12, 0x0d, 0x2f,
  0x2f, 0x2b, 0x01, 0x02, 0x2b, 0x29, 0x15, 0x29, 0x29, 0x29, 0x29, 0x29,
  0x29, 0x29, 0x29, 0x29, 0x29, 0x29, 0x31, 0x1e, 0x2e, 0x21, 0x35, 0x13,
  0x21, 0x36, 0x3c, 0x13, 0x24, 0x31, 0x2c, 0x16, 0x13, 0x15, 0x1b, 0x20,
  0x28, 0x29, 0x29, 0x29, 0x29, 0x29, 0x29, 0x29, 0x29, 0x29, 0x29, 0x29,
  0x29, 0x3c, 0x29, 0x25, 0x27, 0x29, 0x29, 0x29, 0x27, 0x29, 0x29, 0x2a,
  0x29, 0x29, 0x29, 0x29, 0x29, 0x29, 0x29, 0x29, 0x0c, 0x29, 0x2d, 0x34,
  0x31, 0x37, 0x25, 0x2b, 0x27, 0x29, 0x2c, 0x2e, 0x33, 0x25, 0x29, 0x2f,
  0x2b, 0x3d, 0x49, 0x37, 0x46, 0x38, 0x3a, 0x3b, 0x35, 0x33, 0x30, 0x39,
  0x24, 0x30, 0x31, 0x32, 0x2b, 0x2c, 0x3a, 0x1f, 0x3a, 0x2e, 0x1c, 0x11,
  0x30, 0x38, 0x39, 0x25, 0x27, 0x31, 0x28, 0x28, 0x2c, 0x26, 0x2b, 0x2b,
  0x34, 0x34, 0x31, 0x34, 0x3c, 0x36, 0x3a, 0x3b, 0x37, 0x2d, 0x28, 0x23,
  0x22, 0x23, 0x21, 0x20, 0x22, 0x24, 0x20, 0x26, 0x24, 0x26, 0x1c, 0x24,
  0x29, 0x24, 0x2a, 0x2d, 0x2c, 0x2d, 0x22, 0x22, 0x2a, 0x25, 0x20, 0x26,
  0x1a, 0x27, 0x20, 0x1b, 0x1a, 0x15, 0x27, 0x28, 0x1c, 0x2a, 0x2d, 0x26,
  0x35, 0x27, 0x2a, 0x26, 0x21, 0x1a, 0x1c, 0x1f, 0x1a, 0x19, 0x22, 0x20,
  0x25, 0x23, 0x29, 0x23, 0x30, 0x26, 0x2c, 0x26, 0x1a, 0x2d, 0x2d, 0x26,
  0x26, 0x30, 0x29, 0x27, 0x1d, 0x1f, 0x12, 0x14, 0x1c, 0x1c, 0x1a, 0x25,
  0x1c, 0x27, 0x21, 0x2c, 0x27, 0x25, 0x25, 0x21, 0x23, 0x1a, 0x22, 0x19,
  0x1a, 0x16, 0x1c, 0x2f, 0x28, 0x2e, 0x2b, 0x2c, 0x28, 0x2a, 0x12, 0x2d,
  0x30, 0x2b, 0x27, 0x21, 0x1e, 0x22, 0x24, 0x25, 0x2b, 0x19, 0x19, 0x1e,
  0x18, 0x17, 0x13, 0x1b, 0x1d, 0x16, 0x23, 0x27, 0x22, 0x21, 0x27, 0x16,
  0x24, 0x18, 0x19, 0x23, 0x24, 0x25, 0x27, 0x26, 0x25, 0x1d, 0x22, 0x1e,
  0x14, 0x1a, 0x29, 0x11, 0x09, 0x0f, 0x1c, 0x22, 0x2c, 0x21, 0x1f, 0x28,
  0x30, 0x2b, 0x25, 0x2d, 0x24, 0x20, 0x20, 0x25, 0x28, 0x26, 0x32, 0x34,
  0x19, 0x26, 0x23, 0x1d, 0x24, 0x1e, 0x28, 0x2a, 0x2a, 0x27, 0x30, 0x35,
  0x31, 0x22, 0x1f, 0x1b, 0x29, 0x19, 0x0e, 0x22, 0x20, 0x2b, 0x31, 0x1f,
  0x22, 0x2e, 0x24, 0x2b, 0x30, 0x33, 0x35, 0x2c, 0x28, 0x22, 0x19, 0x22,
  0x10, 0x17, 0x1a, 0x1c, 0x31, 0x1a, 0x20, 0x21, 0x1e, 0x1d, 0x25, 0x2a,
  0x29, 0x33, 0x34, 0x2e, 0x2a, 0x28, 0x24, 0x2a, 0x27, 0x23, 0x30, 0x11,
  0x18, 0x1d, 0x28, 0x2c, 0x29, 0x2d, 0x2c, 0x2c, 0x34, 0x36, 0x31, 0x25,
  0x24, 0x21, 0x1c, 0x1b, 0x1e, 0x2a, 0x29, 0x1c, 0x2f, 0x30, 0x24, 0x26,
  0x1f, 0x24, 0x23, 0x22, 0x25, 0x2a, 0x38, 0x36, 0x29, 0x28, 0x31, 0x27,
  0x28, 0x2a, 0x27, 0x25, 0x33, 0x2e, 0x25, 0x29, 0x22, 0x2b, 0x29, 0x2a,
  0x2c, 0x29, 0x21, 0x29, 0x23, 0x27, 0x2a, 0x26, 0x20, 0x34, 0x32, 0x2e,
  0x2e, 0x22, 0x32, 0x2d, 0x2d, 0x2c, 0x2b, 0x24, 0x2b, 0x21, 0x26, 0x2a,
  0x23, 0x1f, 0x28, 0x20, 0x2d, 0x20, 0x21, 0x2c, 0x1b, 0x1d, 0x28, 0x2c,
  0x20, 0x2f, 0x1f, 0x23, 0x21, 0x27, 0x22, 0x27, 0x23, 0x2e, 0x26, 0x2f,
  0x32, 0x39, 0x2c, 0x2f, 0x28, 0x34, 0x2e, 0x2a, 0x32, 0x32, 0x29, 0x24,
  0x1f, 0x21, 0x24, 0x23, 0x27, 0x25, 0x22, 0x21, 0x2a, 0x2a, 0x24, 0x2d,
  0x24, 0x25, 0x21, 0x14, 0x28, 0x1c, 0x1b, 0x22, 0x26, 0x20, 0x20, 0x22,
  0x24, 0x1f, 0x27, 0x28, 0x35, 0x2e, 0x28, 0x36, 0x1e, 0x25, 0x2f, 0x37,
  0x36, 0x3b, 0x2c, 0x2d, 0x24, 0x27, 0x27, 0x29, 0x25, 0x1f, 0x23, 0x19,
  0x18, 0x1e, 0x04, 0x03, 0x03, 0x0a, 0x2c, 0x25, 0x22, 0x1e, 0x1b, 0x1c,
  0x26, 0x3a, 0x25, 0x1b, 0x19, 0x19, 0xef, 0x0a, 0x20, 0x0b, 0x14, 0x17,
  0x0d, 0x24, 0x29, 0x27, 0x18, 0x08, 0x08, 0x14, 0x1e, 0x0c, 0x26, 0x2e,
  0x2f, 0x27, 0x2e, 0x2d, 0x21, 0x27, 0x11, 0x16, 0x26, 0x29, 0x12, 0x2c,
  0x0d, 0x2f, 0x2a, 0x34, 0x30, 0x31, 0x26, 0x26, 0x3c, 0x3c, 0x32, 0x26,
  0x2c, 0x32, 0x2b, 0x38, 0x20, 0x26, 0x20, 0x1b, 0x15, 0x31, 0x09, 0x21,
  0x12, 0x20, 0x0e, 0x14, 0x1e, 0x26, 0x1f, 0x27, 0x21, 0x19, 0x10, 0x14,
  0x15, 0x09, 0x03, 0xfe, 0x0b, 0xe9, 0xef, 0x18, 0x29, 0x1a, 0x12, 0x33,
  0x29, 0x32, 0x22, 0x1c, 0x34, 0x31, 0x3b, 0x28, 0x20, 0x2e, 0x11, 0x07,
  0x09, 0x32, 0x2f, 0x11, 0x16, 0x29, 0x29, 0x29, 0x29, 0x29, 0x29, 0x22,
  0x0d, 0x0b, 0x0b, 0x1a, 0x25, 0x2a, 0x21, 0x13, 0x1b, 0x21, 0x26, 0x10,
  0x15, 0x12, 0x11, 0x1b, 0x12, 0x13, 0x29, 0x29, 0x28, 0x15, 0x2a, 0x44,
  0x3f, 0x3a, 0x45, 0x34, 0x03, 0x35, 0x49, 0x49, 0x2a, 0x34, 0x3b, 0x21,
  0x31, 0x31, 0x3b, 0x41, 0x24, 0x30, 0x54, 0x29, 0x29, 0x29, 0x10, 0x04,
  0xf4, 0xf3, 0xfd, 0x0b, 0x12, 0x03, 0xfc, 0x0d, 0x21, 0x1a, 0x1c, 0x07,
  0x0b, 0x15, 0xf5, 0x02, 0x28, 0x0c, 0x1a, 0x29, 0x29, 0x29, 0x29, 0x29,
  0x29, 0x2e, 0x31, 0x37, 0x19, 0x0d, 0x15, 0x16, 0x1f, 0x28, 0x20, 0x2b,
  0x15, 0x10, 0x19, 0x0d, 0x29, 0x29, 0x29, 0x29, 0x29, 0x29, 0x29, 0x29,
  0x29, 0x29, 0x29, 0x29, 0x29, 0x29, 0x29, 0x29, 0x29, 0x21, 0x22, 0x2c,
  0x2b, 0x29, 0x29, 0x29, 0x29, 0x29, 0x29, 0x29, 0x29, 0x29, 0x29, 0x29,
  0x29, 0x29, 0x29, 0x29, 0x29, 0x29, 0x29, 0x3d, 0x29, 0x38, 0x33, 0x0e,
  0x19, 0x13, 0x2f, 0x41, 0x3b, 0x04, 0x28, 0x27, 0x06, 0x2f, 0x46, 0x39,
  0x33, 0x29, 0x3a, 0x24, 0x29, 0x37, 0x34, 0x51, 0x38, 0x48, 0x20, 0x31,
  0x2c, 0x20, 0x4b, 0x3f, 0x22, 0x26, 0x47, 0x45, 0x25, 0x29, 0x32, 0x29,
  0x29, 0x29, 0x29, 0x29, 0x29, 0x29, 0x29, 0x29, 0x29, 0x29, 0x0a, 0x13,
  0x18, 0x20, 0x11, 0x22, 0x29, 0x17, 0x05, 0x38, 0x28, 0x1f, 0x20, 0x38,
  0x31, 0x2f, 0x34, 0x31, 0x29, 0x29, 0x29, 0x29, 0x29, 0x29, 0x29, 0x29,
  0x29, 0x29, 0x29, 0x29, 0x29, 0x15, 0x29, 0x1b, 0x20, 0x29, 0x29, 0x29,
  0x28, 0x28, 0x28, 0x28, 0x28, 0x29, 0x29, 0x29, 0x29, 0x29, 0x29, 0x29,
  0x44, 0x39, 0x24, 0x19, 0x07, 0x12, 0x21, 0x1e, 0x27, 0x24, 0x27, 0x24,
  0x19, 0x17, 0x23, 0x1f, 0x23, 0x31, 0x4c, 0x46, 0x3b, 0x23, 0x32, 0x23,
  0x23, 0x29, 0x20, 0x25, 0x1f, 0x26, 0x25, 0x1f, 0x23, 0x23, 0x17, 0x23,
  0x2d, 0x21, 0x04, 0x05, 0x15, 0x0c, 0x26, 0x26, 0x21, 0x2d, 0x1e, 0x2a,
  0x26, 0x26, 0x20, 0x24, 0x1e, 0x20, 0x23, 0x1e, 0x25, 0x2b, 0x31, 0x32,
  0x20, 0x2e, 0x26, 0x28, 0x29, 0x24, 0x2a, 0x25, 0x25, 0x24, 0x20, 0x25,
  0x25, 0x24, 0x25, 0x1c, 0x1c, 0x20, 0x1d, 0x23, 0x1c, 0x15, 0x19, 0x25,
  0x27, 0x1f, 0x28, 0x2b, 0x2a, 0x28, 0x26, 0x25, 0x28, 0x24, 0x25, 0x2a,
  0x29, 0x26, 0x2c, 0x2b, 0x2a, 0x1e, 0x28, 0x29, 0x25, 0x26, 0x24, 0x26,
  0x22, 0x27, 0x28, 0x25, 0x24, 0x23, 0x26, 0x2c, 0x1c, 0x23, 0x1f, 0x0d,
  0x1e, 0x1a, 0x28, 0x28, 0x2b, 0x27, 0x27, 0x2f, 0x29, 0x29, 0x29, 0x27,
  0x20, 0x20, 0x23, 0x1e, 0x1d, 0x26, 0x1a, 0x1c, 0x1c, 0x21, 0x27, 0x1d,
  0x24, 0x1b, 0x1e, 0x25, 0x29, 0x30, 0x2b, 0x2e, 0x34, 0x33, 0x2f, 0x30,
  0x1f, 0x2c, 0x33, 0x32, 0x23, 0x2c, 0x28, 0x2c, 0x31, 0x32, 0x2e, 0x2e,
  0x25, 0x2f, 0x2e, 0x30, 0x28, 0x24, 0x26, 0x1d, 0x24, 0x20, 0x1f, 0x18,
  0x2a, 0x25, 0x29, 0x1e, 0x26, 0x26, 0x2a, 0x2a, 0x31, 0x35, 0x27, 0x1d,
  0x25, 0x21, 0x27, 0x2e, 0x30, 0x2f, 0x2d, 0x2d, 0x2c, 0x26, 0x2c, 0x27,
  0x28, 0x21, 0x1e, 0x22, 0x24, 0x2e, 0x2c, 0x2e, 0x2a, 0x25, 0x1c, 0x26,
  0x26, 0x2b, 0x36, 0x24, 0x26, 0x2c, 0x1d, 0x21, 0x25, 0x19, 0x23, 0x2a,
  0x2b, 0x31, 0x2b, 0x26, 0x20, 0x1f, 0x1c, 0x22, 0x24, 0x2e, 0x1b, 0x1e,
  0x1b, 0x22, 0x2a, 0x1f, 0x2c, 0x20, 0x24, 0x20, 0x21, 0x2b, 0x2e, 0x26,
  0x29, 0x25, 0x28, 0x22, 0x1e, 0x1e, 0x17, 0x17, 0x11, 0x15, 0x1e, 0x1c,
  0x16, 0x1a, 0x1f, 0x2c, 0x28, 0x30, 0x27, 0x25, 0x24, 0x1d, 0x20, 0x25,
  0x25, 0x26, 0x2a, 0x22, 0x19, 0x1b, 0x24, 0x20, 0x27, 0x29, 0x28, 0x2a,
  0x27, 0x2e, 0x32, 0x2c, 0x23, 0x17, 0x1b, 0x1c, 0x27, 0x1a, 0x1a, 0x27,
  0x18, 0x19, 0x14, 0x21, 0x19, 0x1f, 0x1d, 0x20, 0x21, 0x32, 0x31, 0x28,
  0x29, 0x2a, 0x23, 0x21, 0x23, 0x1e, 0x0e, 0x1a, 0x22, 0x0b, 0x1c, 0x1a,
  0x1e, 0x27, 0x23, 0x2a, 0x23, 0x28, 0x1d, 0x1f, 0x22, 0x22, 0x25, 0x2a,
  0x21, 0x19, 0x18, 0x28, 0x2c, 0x2a, 0x22, 0x1e, 0x2a, 0x23, 0x23, 0x1d,
  0x1a, 0x1a, 0x22, 0x22, 0x24, 0x25, 0x22, 0x1f, 0x23, 0x15, 0x13, 0x20,
  0x2a, 0x1c, 0x2d, 0x2c, 0x23, 0x27, 0x24, 0x21, 0x22, 0x21, 0x22, 0x28,
  0x1e, 0x23, 0x1e, 0x22, 0x24, 0x34, 0x20, 0x2c, 0x27, 0x16, 0x20, 0x27,
  0x26, 0x26, 0x23, 0x22, 0x1c, 0x27, 0x20, 0x20, 0x1f, 0x26, 0x1f, 0x25,
  0x27, 0x29, 0x30, 0x3b, 0x2a, 0x31, 0x21, 0x22, 0x26, 0x1c, 0x1c, 0x1a,
  0x24, 0x22, 0x21, 0x26, 0x29, 0x28, 0x1d, 0x28, 0x27, 0x2e, 0x2f, 0x3d,
  0x3c, 0x35, 0x23, 0x29, 0x38, 0x29, 0x29, 0x1e, 0x23, 0x1f, 0x16, 0x21,
  0x21, 0x29, 0x24, 0x22, 0x19, 0x15, 0x21, 0x12, 0x05, 0x1e, 0x34, 0x25,
  0x1b, 0x17, 0x1d, 0x22, 0x2b, 0x34, 0x2f, 0x39, 0x2f, 0x10, 0x1a, 0x16,
  0x18, 0x24, 0x01, 0x07, 0x0d, 0x28, 0x29, 0x29, 0x2d, 0x46, 0x47, 0x42,
  0x2d, 0x15, 0x06, 0x31, 0x33, 0x30, 0x30, 0x23, 0x0b, 0x1f, 0x07, 0x0a,
  0x15, 0x1b, 0x2d, 0x16, 0x2d, 0x3f, 0x31, 0x30, 0x33, 0x38, 0x41, 0x2d,
  0x3e, 0x18, 0x1c, 0x19, 0x17, 0x0c, 0x33, 0x29, 0x4a, 0x54, 0x60, 0x51,
  0x32, 0x20, 0x2e, 0x18, 0x25, 0x29, 0x34, 0x22, 0x29, 0x33, 0x27, 0x1e,
  0x2e, 0x20, 0x24, 0x1f, 0x1d, 0x19, 0x15, 0x17, 0x1a, 0x25, 0x41, 0x37,
  0x29, 0x08, 0x04, 0x2b, 0x1e, 0x37, 0x46, 0x21, 0x2a, 0x29, 0x10, 0x14,
  0x33, 0x1a, 0x1d, 0x1b, 0x18, 0x34, 0x3a, 0x20, 0x38, 0x29, 0x29, 0x29,
  0x29, 0x29, 0x29, 0x2f, 0x44, 0x45, 0x3f, 0x3b, 0x30, 0x37, 0x2e, 0x30,
  0x50, 0x49, 0x2b, 0x1a, 0x2e, 0x36, 0x39, 0x2c, 0x3d, 0x3e, 0x29, 0x29,
  0x28, 0x15, 0x4a, 0x37, 0x30, 0x31, 0x2e, 0x36, 0x45, 0x46, 0x20, 0x1f,
  0x11, 0x18, 0x33, 0x38, 0x41, 0x3c, 0x35, 0x34, 0x32, 0x19, 0x00, 0x29,
  0x29, 0x29, 0x49, 0x3e, 0x3c, 0x31, 0x30, 0x35, 0x32, 0x36, 0x29, 0x35,
  0x3e, 0x2a, 0x27, 0x2b, 0x40, 0x30, 0x2d, 0x26, 0x02, 0x44, 0x39, 0x29,
  0x29, 0x29, 0x29, 0x29, 0x29, 0x2b, 0x27, 0x1a, 0x1b, 0x12, 0x13, 0x14,
  0x14, 0x38, 0x39, 0x37, 0x2c, 0x1b, 0x32, 0x19, 0x29, 0x29, 0x29, 0x29,
  0x29, 0x29, 0x29, 0x29, 0x29, 0x29, 0x29, 0x29, 0x29, 0x29, 0x29, 0x29,
  0x29, 0x28, 0x28, 0x2b, 0x2b, 0x29, 0x29, 0x29, 0x29, 0x29, 0x29, 0x29,
  0x29, 0x29, 0x29, 0x29, 0x29, 0x29, 0x29, 0x29, 0x29, 0x29, 0x29, 0x13,
  0x29, 0x3a, 0x28, 0x22, 0x14, 0x11, 0x26, 0x22, 0x41, 0x0a, 0x33, 0x54,
  0x09, 0x25, 0x55, 0x4f, 0x2c, 0x29, 0x39, 0x31, 0x29, 0x19, 0x24, 0x34,
  0x19, 0x08, 0x2e, 0x39, 0x3d, 0x41, 0x1b, 0x13, 0x26, 0x28, 0x05, 0xfb,
  0x28, 0x29, 0x0e, 0x29, 0x29, 0x29, 0x29, 0x29, 0x29, 0x29, 0x29, 0x29,
  0x29, 0x29, 0x3a, 0x2a, 0x2e, 0x2b, 0x3e, 0x26, 0x26, 0x3b, 0x44, 0x14,
  0x24, 0x26, 0x29, 0x18, 0x19, 0x19, 0x1b, 0x20, 0x28, 0x29, 0x29, 0x29,
  0x29, 0x29, 0x29, 0x29, 0x29, 0x29, 0x29, 0x29, 0x29, 0x3b, 0x29, 0x2b,
  0x2b, 0x29, 0x29, 0x29, 0x29, 0x29, 0x2a, 0x2c, 0x2a, 0x29, 0x29, 0x29,
  0x29, 0x29, 0x29, 0x29, 0x3c, 0x2f, 0x23, 0x1f, 0x18, 0x18, 0x33, 0x36,
  0x29, 0x2e, 0x32, 0x36, 0x22, 0x2b, 0x2e, 0x20, 0x2e, 0x29, 0x2b, 0x38,
  0x36, 0x35, 0x28, 0x2b, 0x2d, 0x2b, 0x2b, 0x2b, 0x2e, 0x2c, 0x30, 0x1a,
  0x23, 0x34, 0x23, 0x3a, 0x28, 0x21, 0x33, 0x3a, 0x33, 0x1d, 0x32, 0x27,
  0x23, 0x28, 0x1c, 0x27, 0x25, 0x23, 0x2a, 0x31, 0x25, 0x24, 0x24, 0x30,
  0x30, 0x2f, 0x24, 0x1d, 0x27, 0x2d, 0x29, 0x24, 0x2c, 0x26, 0x25, 0x27,
  0x2a, 0x28, 0x29, 0x22, 0x26, 0x23, 0x26, 0x24, 0x1b, 0x36, 0x27, 0x28,
  0x2d, 0x24, 0x22, 0x2b, 0x20, 0x1f, 0x22, 0x21, 0x1e, 0x1d, 0x1f, 0x27,
  0x25, 0x22, 0x21, 0x1f, 0x1e, 0x21, 0x2b, 0x2d, 0x1d, 0x24, 0x20, 0x18,
  0x15, 0x22, 0x1e, 0x2b, 0x22, 0x27, 0x26, 0x29, 0x20, 0x21, 0x19, 0x1c,
  0x1b, 0x28, 0x20, 0x32, 0x3d, 0x1a, 0x2c, 0x22, 0x27, 0x21, 0x26, 0x21,
  0x28, 0x2a, 0x2a, 0x22, 0x21, 0x1e, 0x25, 0x21, 0x26, 0x26, 0x2a, 0x20,
  0x25, 0x2b, 0x27, 0x22, 0x29, 0x1e, 0x1f, 0x20, 0x1f, 0x27, 0x2a, 0x2b,
  0x23, 0x24, 0x26, 0x25, 0x24, 0x24, 0x33, 0x47, 0x2f, 0x27, 0x26, 0x29,
  0x2c, 0x2d, 0x29, 0x26, 0x26, 0x38, 0x33, 0x1e, 0x14, 0x1d, 0x26, 0x24,
  0x2f, 0x38, 0x35, 0x38, 0x5e, 0x3d, 0x38, 0x2a, 0x1f, 0x2b, 0x27, 0x1e,
  0x1b, 0x24, 0x29, 0x2b, 0x26, 0x24, 0x2a, 0x2f, 0x37, 0x35, 0x36, 0x33,
  0x2f, 0x3c, 0x46, 0x2d, 0x27, 0x2b, 0x28, 0x21, 0x29, 0x28, 0x19, 0x20,
  0x23, 0x1c, 0x1e, 0x21, 0x23, 0x2a, 0x3f, 0x4a, 0x3c, 0x30, 0x27, 0x25,
  0x20, 0x17, 0x18, 0x1c, 0x21, 0x25, 0x22, 0x31, 0x2c, 0x2c, 0x2b, 0x2a,
  0x2a, 0x3a, 0x37, 0x18, 0x1f, 0x2a, 0x25, 0x38, 0x34, 0x26, 0x31, 0x2c,
  0x2a, 0x22, 0x23, 0x1e, 0x21, 0x1d, 0x2c, 0x20, 0x27, 0x23, 0x2d, 0x33,
  0x2f, 0x26, 0x23, 0x1b, 0x26, 0x23, 0x1a, 0x23, 0x22, 0x24, 0x16, 0x24,
  0x35, 0x2f, 0x32, 0x3a, 0x36, 0x2a, 0x2b, 0x2b, 0x17, 0x25, 0x1e, 0x2d,
  0x39, 0x3c, 0x42, 0x3c, 0x2f, 0x24, 0x24, 0x17, 0x13, 0x21, 0x20, 0x2a,
  0x2a, 0x21, 0x33, 0x36, 0x25, 0x30, 0x2e, 0x28, 0x2b, 0x27, 0x20, 0x1f,
  0x17, 0x1a, 0x23, 0x2c, 0x31, 0x3f, 0x36, 0x36, 0x2a, 0x1a, 0x29, 0x0f,
  0x1f, 0x30, 0x24, 0x22, 0x28, 0x2c, 0x34, 0x30, 0x2e, 0x27, 0x29, 0x25,
  0x2e, 0x2a, 0x2a, 0x2a, 0x31, 0x2c, 0x29, 0x2a, 0x1c, 0x29, 0x33, 0x2d,
  0x28, 0x29, 0x2b, 0x28, 0x35, 0x35, 0x34, 0x37, 0x35, 0x40, 0x2b, 0x2e,
  0x28, 0x26, 0x29, 0x1c, 0x2d, 0x27, 0x2b, 0x30, 0x30, 0x2b, 0x2e, 0x2f,
  0x33, 0x31, 0x32, 0x3c, 0x2f, 0x29, 0x2c, 0x1f, 0x26, 0x26, 0x23, 0x15,
  0x0d, 0x1c, 0x21, 0x2b, 0x29, 0x22, 0x27, 0x27, 0x35, 0x2c, 0x2f, 0x2b,
  0x24, 0x30, 0x28, 0x2a, 0x1a, 0x2f, 0x3b, 0x20, 0x06, 0x28, 0x1a, 0x27,
  0x21, 0x2e, 0x2a, 0x26, 0x29, 0x2c, 0x27, 0x2e, 0x2b, 0x2a, 0x2b, 0x32,
  0x24, 0x24, 0x20, 0x1c, 0x2c, 0x1b, 0x14, 0x12, 0x2b, 0x21, 0x20, 0x26,
  0x28, 0x1b, 0x21, 0x2a, 0x1d, 0x1d, 0x20, 0x26, 0x24, 0x11, 0x0a, 0x00,
  0x1f, 0x34, 0x2d, 0x28, 0x23, 0x2c, 0x1e, 0x1a, 0x0d, 0x02, 0x10, 0x1f,
  0x1b, 0x14, 0x2b, 0x27, 0x1d, 0x1d, 0x1d, 0x26, 0x45, 0x30, 0x29, 0x2b,
  0x3a, 0x4a, 0x4d, 0x40, 0x38, 0x49, 0x34, 0x2f, 0x30, 0x38, 0x29, 0x21,
  0x2d, 0x3c, 0x41, 0x40, 0x2f, 0x2b, 0x3a, 0x21, 0x32, 0x20, 0x2c, 0x22,
  0x15, 0x1d, 0x27, 0x20, 0x3e, 0x5c, 0x49, 0x30, 0x22, 0x1f, 0x29, 0x10,
  0x20, 0x2a, 0x25, 0x22, 0x1f, 0x1e, 0x1c, 0x10, 0x25, 0x27, 0x35, 0x25,
  0x1b, 0x16, 0x0d, 0x01, 0x18, 0x1e, 0x1c, 0x20, 0x1d, 0x1f, 0x24, 0x27,
  0x23, 0x1b, 0x2e, 0x22, 0x29, 0x1c, 0x22, 0x19, 0x22, 0x14, 0x1f, 0x34,
  0x1c, 0x20, 0x14, 0x1c, 0x26, 0x15, 0x24, 0x41, 0x37, 0x1a, 0x20, 0x41,
  0x40, 0x29, 0x29, 0x29, 0x29, 0x29, 0x29, 0x30, 0x45, 0x47, 0x46, 0x39,
  0x2c, 0x28, 0x35, 0x41, 0x41, 0x49, 0x4a, 0x59, 0x3e, 0x42, 0x43, 0x37,
  0x40, 0x3e, 0x29, 0x29, 0x2a, 0x3b, 0xff, 0x16, 0x22, 0x0d, 0x0d, 0x0d,
  0xff, 0xeb, 0xff, 0x2a, 0x37, 0x2f, 0x20, 0x2e, 0x2f, 0x29, 0x1c, 0x2b,
  0x32, 0x1b, 0xfe, 0x29, 0x29, 0x29, 0x3e, 0x30, 0x32, 0x23, 0x18, 0x1c,
  0x24, 0x13, 0x04, 0x2c, 0x2f, 0x2a, 0x2a, 0x23, 0x2a, 0x2b, 0x35, 0x2e,
  0x06, 0x3c, 0x38, 0x29, 0x29, 0x29, 0x29, 0x29, 0x29, 0x1f, 0x18, 0x17,
  0x30, 0x3e, 0x3b, 0x3b, 0x2d, 0x26, 0x2f, 0x2b, 0x1f, 0x11, 0x1b, 0x18,
  0x29, 0x29, 0x29, 0x29, 0x29, 0x29, 0x29, 0x29, 0x29, 0x29, 0x29, 0x29,
  0x29, 0x29, 0x29, 0x29, 0x29, 0x38, 0x38, 0x25, 0x27, 0x29, 0x29, 0x29,
  0x29, 0x29, 0x29, 0x29, 0x29, 0x29, 0x29, 0x29, 0x29, 0x29, 0x29, 0x29,
  0x29, 0x29, 0x29, 0x0f, 0x29, 0x3c, 0x40, 0x34, 0x4b, 0x49, 0x2c, 0x26,
  0x40, 0x05, 0x07, 0x15, 0x05, 0x24, 0xff, 0xf3, 0x32, 0x29, 0x0b, 0x2b,
  0x29, 0x1a, 0x0d, 0x08, 0x19, 0x0a, 0x29, 0x0e, 0x2c, 0x3c, 0x06, 0x0d,
  0x23, 0x2b, 0x4a, 0x3e, 0x2c, 0x29, 0x0f, 0x29, 0x29, 0x29, 0x29, 0x29,
  0x29, 0x29, 0x29, 0x29, 0x29, 0x29, 0x36, 0x24, 0x27, 0x24, 0x3a, 0x1f,
  0x1f, 0x2d, 0x3e, 0x0c, 0x1d, 0x22, 0x23, 0x17, 0x19, 0x19, 0x1a, 0x1e,
  0x27, 0x29, 0x29, 0x29, 0x29, 0x29, 0x29, 0x29, 0x29, 0x29, 0x29, 0x29,
  0x29, 0x3c, 0x29, 0x36, 0x30, 0x29, 0x29, 0x29, 0x28, 0x29, 0x29, 0x2a,
  0x29, 0x29, 0x29, 0x29, 0x29, 0x29, 0x29, 0x29, 0x15, 0x1f, 0x1a, 0x0f,
  0x01, 0x10, 0x31, 0x1b, 0x24, 0x2c, 0x35, 0x31, 0x1f, 0x2d, 0x1e, 0x1b,
  0x15, 0x09, 0x1a, 0x24, 0x0c, 0x0e, 0x18, 0x0a, 0x20, 0x29, 0x1f, 0x1a,
  0x33, 0x26, 0x24, 0x22, 0x2d, 0x28, 0x1c, 0x2f, 0x1b, 0x1d, 0x00, 0x23,
  0xf2, 0xfa, 0x15, 0x33, 0x30, 0x21, 0x26, 0x20, 0x1c, 0x2f, 0x23, 0x1f,
  0x21, 0x19, 0x1b, 0x16, 0x10, 0x1a, 0x1d, 0x0c, 0x09, 0x29, 0x20, 0x29,
  0x30, 0x22, 0x28, 0x32, 0x2d, 0x2b, 0x29, 0x2e, 0x28, 0x2a, 0x20, 0x24,
  0x2e, 0x26, 0x2a, 0x16, 0x1a, 0x2a, 0x2d, 0x37, 0x23, 0x26, 0x2c, 0x2b,
  0x33, 0x28, 0x30, 0x2f, 0x39, 0x34, 0x2d, 0x2c, 0x31, 0x25, 0x27, 0x29,
  0x2e, 0x2a, 0x2b, 0x2e, 0x34, 0x40, 0x35, 0x34, 0x32, 0x31, 0x28, 0x30,
  0x2c, 0x25, 0x29, 0x2d, 0x22, 0x2d, 0x20, 0x14, 0x2f, 0x20, 0x2c, 0x22,
  0x28, 0x1b, 0x1e, 0x27, 0x2d, 0x2c, 0x3b, 0x30, 0x34, 0x3a, 0x3b, 0x2e,
  0x2c, 0x33, 0x2c, 0x34, 0x3b, 0x34, 0x36, 0x31, 0x2d, 0x32, 0x2c, 0x34,
  0x2c, 0x3d, 0x3b, 0x21, 0x20, 0x24, 0x21, 0x24, 0x26, 0x2f, 0x43, 0x39,
  0x28, 0x24, 0x27, 0x26, 0x26, 0x20, 0x1e, 0x20, 0x13, 0x32, 0x29, 0x1d,
  0x1f, 0x26, 0x35, 0x2b, 0x2c, 0x30, 0x24, 0x1e, 0x19, 0x24, 0x21, 0x34,
  0x26, 0x2e, 0x23, 0x11, 0x10, 0x11, 0x13, 0x10, 0x19, 0x1f, 0x1a, 0x1f,
  0x25, 0x20, 0x24, 0x2e, 0x3b, 0x36, 0x25, 0x17, 0x16, 0x1d, 0x20, 0x19,
  0x10, 0x15, 0x11, 0x02, 0x10, 0x1c, 0x1e, 0x1f, 0x1f, 0x1a, 0x24, 0x19,
  0x3a, 0x25, 0x24, 0x23, 0x22, 0x22, 0x17, 0x0e, 0x05, 0x10, 0x1a, 0x13,
  0x12, 0x24, 0x23, 0x28, 0x1d, 0x22, 0x29, 0x1e, 0x29, 0x28, 0x1a, 0x20,
  0x26, 0x1e, 0x23, 0x15, 0x13, 0x0c, 0x02, 0x05, 0x0e, 0x1b, 0x31, 0x26,
  0x2d, 0x2e, 0x28, 0x36, 0x31, 0x2d, 0x2a, 0x2c, 0x2e, 0x2f, 0x25, 0x18,
  0x15, 0x05, 0x08, 0x14, 0x17, 0x22, 0x1e, 0x19, 0x1b, 0x21, 0x27, 0x46,
  0x51, 0x3c, 0x38, 0x1c, 0x1f, 0x1a, 0x20, 0x19, 0x0d, 0x05, 0x06, 0x19,
  0x23, 0x26, 0x2b, 0x2a, 0x30, 0x34, 0x2b, 0x42, 0x21, 0x24, 0x2e, 0x23,
  0x25, 0x1f, 0x23, 0x1e, 0x1a, 0x11, 0x08, 0x0d, 0x1f, 0x25, 0x15, 0x1f,
  0x28, 0x33, 0x37, 0x45, 0x27, 0x20, 0x30, 0x30, 0x36, 0x21, 0x24, 0x24,
  0x23, 0x19, 0x19, 0x1b, 0x1d, 0x21, 0x26, 0x24, 0x22, 0x23, 0x25, 0x2c,
  0x30, 0x36, 0x1c, 0x1a, 0x1a, 0x12, 0x1f, 0x16, 0x1b, 0x20, 0x2a, 0x24,
  0x26, 0x2b, 0x2c, 0x3f, 0x28, 0x24, 0x39, 0x26, 0x34, 0x30, 0x34, 0x2c,
  0x2a, 0x20, 0x28, 0x36, 0x26, 0x23, 0x25, 0x20, 0x21, 0x16, 0x11, 0x14,
  0x1e, 0x2d, 0x20, 0x24, 0x23, 0x20, 0x1d, 0x1e, 0x19, 0x1c, 0x19, 0x2b,
  0x25, 0x2d, 0x27, 0x2a, 0x28, 0x1d, 0x23, 0x20, 0x2e, 0x34, 0x37, 0x1e,
  0x2c, 0x2a, 0x30, 0x36, 0x2e, 0x36, 0x35, 0x30, 0x31, 0x2d, 0x2b, 0x2a,
  0x2f, 0x32, 0x1b, 0x14, 0x14, 0x22, 0x31, 0x18, 0x0e, 0x12, 0x17, 0x1c,
  0x14, 0x0e, 0x27, 0x1f, 0x2d, 0x34, 0x33, 0x30, 0x2c, 0x31, 0x2c, 0x30,
  0x2c, 0x29, 0x38, 0x45, 0x55, 0x20, 0x0c, 0x1b, 0x2c, 0x36, 0x42, 0x3f,
  0x2c, 0x10, 0x0a, 0x20, 0x2d, 0x32, 0x5a, 0x3b, 0x2f, 0x4c, 0x23, 0x23,
  0x43, 0x25, 0x29, 0x28, 0x2c, 0x46, 0x50, 0x3b, 0x1c, 0x27, 0x09, 0x1a,
  0x1c, 0x13, 0x15, 0x1f, 0x13, 0x27, 0x19, 0x0c, 0x14, 0x18, 0x32, 0x19,
  0x30, 0x45, 0x1c, 0x1b, 0x30, 0x43, 0x47, 0x3b, 0x2c, 0x09, 0x1e, 0x3b,
  0x3e, 0x2a, 0x34, 0x24, 0x3d, 0x2b, 0x25, 0x10, 0x0c, 0x16, 0x0e, 0x06,
  0x24, 0x27, 0x35, 0x46, 0x29, 0x34, 0x2d, 0x20, 0x25, 0x31, 0x32, 0x35,
  0x30, 0x42, 0x33, 0x3a, 0x2d, 0x3b, 0x46, 0x4e, 0x29, 0x3b, 0x3f, 0x1a,
  0x20, 0x3b, 0x5e, 0x2d, 0x13, 0x1a, 0x11, 0x3a, 0x47, 0x36, 0x35, 0x54,
  0x47, 0x37, 0x2e, 0x41, 0x23, 0x29, 0x29, 0x29, 0x29, 0x29, 0x29, 0x2f,
  0x45, 0x47, 0x42, 0x3e, 0x30, 0x3a, 0x39, 0x33, 0x54, 0x65, 0x59, 0x50,
  0x30, 0x3c, 0x3b, 0x2f, 0x3e, 0x3e, 0x29, 0x29, 0x28, 0x16, 0x4e, 0x0c,
  0x17, 0x2a, 0x1b, 0x2e, 0x5e, 0x3f, 0x29, 0x1f, 0x15, 0x0e, 0x36, 0x24,
  0x18, 0x22, 0xf7, 0xfb, 0x16, 0x17, 0x02, 0x29, 0x29, 0x29, 0x1c, 0x36,
  0x3c, 0x4a, 0x5d, 0x3a, 0x3c, 0x49, 0x44, 0x40, 0x39, 0x32, 0x34, 0x38,
  0x2e, 0x28, 0x2a, 0x25, 0x32, 0x15, 0x19, 0x29, 0x29, 0x29, 0x29, 0x29,
  0x29, 0x1f, 0x30, 0x3c, 0x35, 0x42, 0x3a, 0x3b, 0x32, 0x32, 0x39, 0x33,
  0x43, 0x49, 0x46, 0x3e, 0x29, 0x29, 0x29, 0x29, 0x29, 0x29, 0x29, 0x29,
  0x29, 0x29, 0x29, 0x29, 0x29, 0x29, 0x29, 0x29, 0x29, 0x30, 0x30, 0x2b,
  0x2b, 0x29, 0x29, 0x29, 0x29, 0x29, 0x29, 0x29, 0x29, 0x29, 0x29, 0x29,
  0x29, 0x29, 0x29, 0x29, 0x29, 0x29, 0x29, 0x14, 0x29, 0x2b, 0x08, 0x27,
  0x08, 0x08, 0x17, 0x17, 0x2d, 0x50, 0x39, 0x4f, 0x50, 0x2f, 0x58, 0x73,
  0x30, 0x29, 0x57, 0x1f, 0x29, 0x1a, 0x3d, 0x48, 0x19, 0x10, 0x43, 0x43,
  0x13, 0x1e, 0x29, 0x1c, 0x2e, 0x2c, 0x4c, 0x46, 0x2d, 0x29, 0x29, 0x29,
  0x29, 0x29, 0x29, 0x29, 0x29, 0x29, 0x29, 0x29, 0x29, 0x29, 0x2d, 0x41,
  0x31, 0x42, 0x31, 0x4d, 0x38, 0x24, 0x28, 0x48, 0x3b, 0x33, 0x32, 0x3c,
  0x3f, 0x3f, 0x3b, 0x34, 0x2b, 0x29, 0x29, 0x29, 0x29, 0x29, 0x29, 0x29,
  0x29, 0x29, 0x29, 0x29, 0x29, 0x1f, 0x29, 0x2f, 0x2d, 0x29, 0x29, 0x29,
  0x2b, 0x29, 0x2a, 0x2a, 0x2a, 0x29, 0x29, 0x29, 0x29, 0x29, 0x29, 0x29,
  0x3d, 0x3a, 0x27, 0x2c, 0x32, 0x5f, 0x65, 0x49, 0x1c, 0x4e, 0x45, 0x45,
  0x3e, 0x36, 0x36, 0x48, 0x35, 0x2f, 0x3a, 0x3d, 0x22, 0x2e, 0x27, 0x2c,
  0x31, 0x2e, 0x38, 0x3e, 0x38, 0x2e, 0x2d, 0x2e, 0x35, 0x38, 0x30, 0x20,
  0x2a, 0x32, 0x24, 0x0e, 0x38, 0x29, 0x34, 0x24, 0x2d, 0x1a, 0x2d, 0x24,
  0x2c, 0x2b, 0x28, 0x24, 0x39, 0x3d, 0x39, 0x47, 0x44, 0x31, 0x27, 0x18,
  0x1e, 0x24, 0x1c, 0x26, 0x2c, 0x21, 0x21, 0x26, 0x2f, 0x2f, 0x2b, 0x27,
  0x24, 0x1b, 0x20, 0x1b, 0x24, 0x22, 0x37, 0x2b, 0x13, 0x1d, 0x24, 0x14,
  0x2b, 0x27, 0x28, 0x1b, 0x1f, 0x2d, 0x2d, 0x27, 0x29, 0x19, 0x17, 0x14,
  0x19, 0x18, 0x29, 0x23, 0x35, 0x2f, 0x2c, 0x1a, 0x13, 0x16, 0x1d, 0x22,
  0x18, 0x1a, 0x20, 0x17, 0x1b, 0x1e, 0x20, 0x16, 0x14, 0x21, 0x32, 0x17,
  0x16, 0x2f, 0x28, 0x1f, 0x15, 0x23, 0x26, 0x1e, 0x1c, 0x18, 0x14, 0x17,
  0x0b, 0x0e, 0x18, 0x24, 0x24, 0x27, 0x28, 0x37, 0x33, 0x27, 0x17, 0x1b,
  0x11, 0x13, 0x0c, 0x02, 0xfb, 0x11, 0x16, 0x2c, 0x23, 0x22, 0x2a, 0x2a,
  0x2f, 0x25, 0x1e, 0x17, 0x1e, 0x2a, 0x28, 0x1b, 0x17, 0x16, 0x09, 0x1e,
  0x1c, 0x17, 0x05, 0xec, 0xff, 0xfe, 0xfa, 0x0a, 0x13, 0x0e, 0x0a, 0x40,
  0x35, 0x0d, 0x1d, 0x15, 0x14, 0x06, 0x01, 0x03, 0xf8, 0x0d, 0x22, 0x29,
  0x1b, 0x1e, 0x0e, 0x04, 0x05, 0x1b, 0x30, 0x12, 0x04, 0x13, 0x0e, 0x1b,
  0x1f, 0x25, 0x25, 0x2b, 0x3c, 0x2b, 0x11, 0x0b, 0x05, 0x01, 0x21, 0x20,
  0x21, 0x20, 0x31, 0x56, 0x2d, 0x37, 0x28, 0x1a, 0x08, 0x14, 0x0f, 0x06,
  0x13, 0x0e, 0x29, 0x3b, 0x31, 0x32, 0x22, 0x17, 0x26, 0x18, 0x03, 0x15,
  0x28, 0x29, 0x1e, 0x27, 0x21, 0x31, 0x36, 0x35, 0x39, 0x21, 0x0e, 0x0f,
  0x15, 0x0c, 0x14, 0x14, 0x16, 0x11, 0x19, 0x2e, 0x41, 0x2c, 0x23, 0x1a,
  0x24, 0x20, 0x1c, 0x15, 0x0d, 0x14, 0x22, 0x25, 0x41, 0x37, 0x2a, 0x0d,
  0x0e, 0x1e, 0x28, 0x22, 0x18, 0x34, 0x3e, 0x27, 0x24, 0x2a, 0x38, 0x34,
  0x1f, 0x13, 0x0b, 0x09, 0x1b, 0x29, 0x2a, 0x23, 0x21, 0x34, 0x3d, 0x3d,
  0x45, 0x41, 0x2d, 0x1e, 0x25, 0x33, 0x2c, 0x2b, 0x1a, 0x18, 0x1c, 0x26,
  0x2a, 0x36, 0x2f, 0x36, 0x4a, 0x56, 0x48, 0x26, 0x46, 0x50, 0x48, 0x4a,
  0x44, 0x3e, 0x37, 0x3c, 0x32, 0x28, 0x29, 0x23, 0x23, 0x2a, 0x2e, 0x25,
  0x36, 0x46, 0x58, 0x35, 0x33, 0x46, 0x37, 0x3d, 0x2e, 0x1e, 0x2c, 0x2b,
  0x29, 0x2a, 0x2f, 0x28, 0x2b, 0x2a, 0x37, 0x42, 0x3a, 0x3a, 0x5d, 0x53,
  0x28, 0x2f, 0x2b, 0x37, 0x31, 0x28, 0x24, 0x33, 0x33, 0x34, 0x2e, 0x2b,
  0x2b, 0x2a, 0x28, 0x2d, 0x3b, 0x36, 0x37, 0x28, 0x2c, 0x43, 0x27, 0x30,
  0x29, 0x2a, 0x1e, 0x25, 0x2d, 0x2c, 0x36, 0x39, 0x38, 0x2b, 0x2a, 0x29,
  0x27, 0x20, 0x15, 0x1f, 0x38, 0x2a, 0x16, 0x0d, 0x22, 0x28, 0x2c, 0x2b,
  0x25, 0x2a, 0x2f, 0x2d, 0x1a, 0x1a, 0x30, 0x20, 0x41, 0x4c, 0x68, 0x5b,
  0x46, 0x51, 0x43, 0x45, 0x2e, 0x30, 0x2b, 0x39, 0x2b, 0x29, 0x2e, 0x31,
  0x2e, 0x26, 0x24, 0x20, 0x13, 0x17, 0x1a, 0x2a, 0x1c, 0x4a, 0x28, 0x19,
  0x3b, 0x42, 0x45, 0x48, 0x31, 0x24, 0x30, 0x1c, 0x06, 0xf6, 0xf9, 0x08,
